{
  "version": "1.0",
  "truncation": null,
  "padding": null,
  "added_tokens": [
    {
      "id": 0,
      "content": "<pad>",
      "single_word": false,
      "lstrip": false,
      "rstrip": false,
      "normalized": false,
      "special": true
    },
    {
      "id": 1,
      "content": "<unk>",
      "single_word": false,
      "lstrip": false,
      "rstrip": false,
      "normalized": false,
      "special": true
    },
    {
      "id": 2,
      "content": "<bos>",
      "single_word": false,
      "lstrip": false,
      "rstrip": false,
      "normalized": false,
      "special": true
    },
    {
      "id": 3,
      "content": "<eos>",
      "single_word": false,
      "lstrip": false,
      "rstrip": false,
      "normalized": false,
      "special": true
    },
    {
      "id": 4,
      "content": "0",
      "single_word": false,
      "lstrip": false,
      "rstrip": false,
      "normalized": false,
      "special": true
    },
    {
      "id": 5,
      "content": "1",
      "single_word": false,
      "lstrip": false,
      "rstrip": false,
      "normalized": false,
      "special": true
    },
    {
      "id": 6,
      "content": "2",
      "single_word": false,
      "lstrip": false,
      "rstrip": false,
      "normalized": false,
      "special": true
    },
    {
      "id": 7,
      "content": "3",
      "single_word": false,
      "lstrip": false,
      "rstrip": false,
      "normalized": false,
      "special": true
    },
    {
      "id": 8,
      "content": "4",
      "single_word": false,
      "lstrip": false,
      "rstrip": false,
      "normalized": false,
      "special": true
    },
    {
      "id": 9,
      "content": "5",
      "single_word": false,
      "lstrip": false,
      "rstrip": false,
      "normalized": false,
      "special": true
    },
    {
      "id": 10,
      "content": "6",
      "single_word": false,
      "lstrip": false,
      "rstrip": false,
      "normalized": false,
      "special": true
    },
    {
      "id": 11,
      "content": "7",
      "single_word": false,
      "lstrip": false,
      "rstrip": false,
      "normalized": false,
      "special": true
    },
    {
      "id": 12,
      "content": "8",
      "single_word": false,
      "lstrip": false,
      "rstrip": false,
      "normalized": false,
      "special": true
    },
    {
      "id": 13,
      "content": "9",
      "single_word": false,
      "lstrip": false,
      "rstrip": false,
      "normalized": false,
      "special": true
    },
    {
      "id": 14,
      "content": "+",
      "single_word": false,
      "lstrip": false,
      "rstrip": false,
      "normalized": false,
      "special": true
    },
    {
      "id": 15,
      "content": "-",
      "single_word": false,
      "lstrip": false,
      "rstrip": false,
      "normalized": false,
      "special": true
    },
    {
      "id": 16,
      "content": "*",
      "single_word": false,
      "lstrip": false,
      "rstrip": false,
      "normalized": false,
      "special": true
    },
    {
      "id": 17,
      "content": "/",
      "single_word": false,
      "lstrip": false,
      "rstrip": false,
      "normalized": false,
      "special": true
    },
    {
      "id": 18,
      "content": "(",
      "single_word": false,
      "lstrip": false,
      "rstrip": false,
      "normalized": false,
      "special": true
    },
    {
      "id": 19,
      "content": ")",
      "single_word": false,
      "lstrip": false,
      "rstrip": false,
      "normalized": false,
      "special": true
    },
    {
      "id": 20,
      "content": "=",
      "single_word": false,
      "lstrip": false,
      "rstrip": false,
      "normalized": false,
      "special": true
    },
    {
      "id": 21,
      "content": "^",
      "single_word": false,
      "lstrip": false,
      "rstrip": false,
      "normalized": false,
      "special": true
    },
    {
      "id": 22,
      "content": ",",
      "single_word": false,
      "lstrip": false,
      "rstrip": false,
      "normalized": false,
      "special": true
    },
    {
      "id": 23,
      "content": ".",
      "single_word": false,
      "lstrip": false,
      "rstrip": false,
      "normalized": false,
      "special": true
    },
    {
      "id": 24,
      "content": "!",
      "single_word": false,
      "lstrip": false,
      "rstrip": false,
      "normalized": false,
      "special": true
    },
    {
      "id": 25,
      "content": "<",
      "single_word": false,
      "lstrip": false,
      "rstrip": false,
      "normalized": false,
      "special": true
    },
    {
      "id": 26,
      "content": ">",
      "single_word": false,
      "lstrip": false,
      "rstrip": false,
      "normalized": false,
      "special": true
    },
    {
      "id": 27,
      "content": "[",
      "single_word": false,
      "lstrip": false,
      "rstrip": false,
      "normalized": false,
      "special": true
    },
    {
      "id": 28,
      "content": "]",
      "single_word": false,
      "lstrip": false,
      "rstrip": false,
      "normalized": false,
      "special": true
    },
    {
      "id": 29,
      "content": "{",
      "single_word": false,
      "lstrip": false,
      "rstrip": false,
      "normalized": false,
      "special": true
    },
    {
      "id": 30,
      "content": "}",
      "single_word": false,
      "lstrip": false,
      "rstrip": false,
      "normalized": false,
      "special": true
    },
    {
      "id": 31,
      "content": "|",
      "single_word": false,
      "lstrip": false,
      "rstrip": false,
      "normalized": false,
      "special": true
    },
    {
      "id": 32,
      "content": "\\frac",
      "single_word": false,
      "lstrip": false,
      "rstrip": false,
      "normalized": false,
      "special": true
    },
    {
      "id": 33,
      "content": "\\sqrt",
      "single_word": false,
      "lstrip": false,
      "rstrip": false,
      "normalized": false,
      "special": true
    },
    {
      "id": 34,
      "content": "\\sum",
      "single_word": false,
      "lstrip": false,
      "rstrip": false,
      "normalized": false,
      "special": true
    },
    {
      "id": 35,
      "content": "\\prod",
      "single_word": false,
      "lstrip": false,
      "rstrip": false,
      "normalized": false,
      "special": true
    },
    {
      "id": 36,
      "content": "\\int",
      "single_word": false,
      "lstrip": false,
      "rstrip": false,
      "normalized": false,
      "special": true
    },
    {
      "id": 37,
      "content": "\\lim",
      "single_word": false,
      "lstrip": false,
      "rstrip": false,
      "normalized": false,
      "special": true
    },
    {
      "id": 38,
      "content": "\\sin",
      "single_word": false,
      "lstrip": false,
      "rstrip": false,
      "normalized": false,
      "special": true
    },
    {
      "id": 39,
      "content": "\\cos",
      "single_word": false,
      "lstrip": false,
      "rstrip": false,
      "normalized": false,
      "special": true
    },
    {
      "id": 40,
      "content": "\\tan",
      "single_word": false,
      "lstrip": false,
      "rstrip": false,
      "normalized": false,
      "special": true
    },
    {
      "id": 41,
      "content": "\\ln",
      "single_word": false,
      "lstrip": false,
      "rstrip": false,
      "normalized": false,
      "special": true
    },
    {
      "id": 42,
      "content": "\\alpha",
      "single_word": false,
      "lstrip": false,
      "rstrip": false,
      "normalized": false,
      "special": true
    },
    {
      "id": 43,
      "content": "\\beta",
      "single_word": false,
      "lstrip": false,
      "rstrip": false,
      "normalized": false,
      "special": true
    },
    {
      "id": 44,
      "content": "\\gamma",
      "single_word": false,
      "lstrip": false,
      "rstrip": false,
      "normalized": false,
      "special": true
    },
    {
      "id": 45,
      "content": "\\delta",
      "single_word": false,
      "lstrip": false,
      "rstrip": false,
      "normalized": false,
      "special": true
    },
    {
      "id": 46,
      "content": "\\epsilon",
      "single_word": false,
      "lstrip": false,
      "rstrip": false,
      "normalized": false,
      "special": true
    },
    {
      "id": 47,
      "content": "\\theta",
      "single_word": false,
      "lstrip": false,
      "rstrip": false,
      "normalized": false,
      "special": true
    },
    {
      "id": 48,
      "content": "\\pi",
      "single_word": false,
      "lstrip": false,
      "rstrip": false,
      "normalized": false,
      "special": true
    },
    {
      "id": 49,
      "content": "\\phi",
      "single_word": false,
      "lstrip": false,
      "rstrip": false,
      "normalized": false,
      "special": true
    },
    {
      "id": 50,
      "content": "\\psi",
      "single_word": false,
      "lstrip": false,
      "rstrip": false,
      "normalized": false,
      "special": true
    },
    {
      "id": 51,
      "content": "\\omega",
      "single_word": false,
      "lstrip": false,
      "rstrip": false,
      "normalized": false,
      "special": true
    },
    {
      "id": 52,
      "content": "\\left",
      "single_word": false,
      "lstrip": false,
      "rstrip": false,
      "normalized": false,
      "special": true
    },
    {
      "id": 53,
      "content": "\\right",
      "single_word": false,
      "lstrip": false,
      "rstrip": false,
      "normalized": false,
      "special": true
    },
    {
      "id": 54,
      "content": "\\hat",
      "single_word": false,
      "lstrip": false,
      "rstrip": false,
      "normalized": false,
      "special": true
    },
    {
      "id": 55,
      "content": "\\bar",
      "single_word": false,
      "lstrip": false,
      "rstrip": false,
      "normalized": false,
      "special": true
    },
    {
      "id": 56,
      "content": "\\tilde",
      "single_word": false,
      "lstrip": false,
      "rstrip": false,
      "normalized": false,
      "special": true
    },
    {
      "id": 57,
      "content": "\\vec",
      "single_word": false,
      "lstrip": false,
      "rstrip": false,
      "normalized": false,
      "special": true
    },
    {
      "id": 58,
      "content": "\\mathbb",
      "single_word": false,
      "lstrip": false,
      "rstrip": false,
      "normalized": false,
      "special": true
    },
    {
      "id": 59,
      "content": "\\mathcal",
      "single_word": false,
      "lstrip": false,
      "rstrip": false,
      "normalized": false,
      "special": true
    },
    {
      "id": 60,
      "content": "\\mathbf",
      "single_word": false,
      "lstrip": false,
      "rstrip": false,
      "normalized": false,
      "special": true
    },
    {
      "id": 61,
      "content": "\\mathrm",
      "single_word": false,
      "lstrip": false,
      "rstrip": false,
      "normalized": false,
      "special": true
    },
    {
      "id": 62,
      "content": "\\ge",
      "single_word": false,
      "lstrip": false,
      "rstrip": false,
      "normalized": false,
      "special": true
    },
    {
      "id": 63,
      "content": "\\le",
      "single_word": false,
      "lstrip": false,
      "rstrip": false,
      "normalized": false,
      "special": true
    },
    {
      "id": 64,
      "content": "\\neq",
      "single_word": false,
      "lstrip": false,
      "rstrip": false,
      "normalized": false,
      "special": true
    },
    {
      "id": 65,
      "content": "\\approx",
      "single_word": false,
      "lstrip": false,
      "rstrip": false,
      "normalized": false,
      "special": true
    },
    {
      "id": 66,
      "content": "\\equiv",
      "single_word": false,
      "lstrip": false,
      "rstrip": false,
      "normalized": false,
      "special": true
    },
    {
      "id": 67,
      "content": "\\l",
      "single_word": false,
      "lstrip": false,
      "rstrip": false,
      "normalized": false,
      "special": true
    },
    {
      "id": 68,
      "content": "\\langle",
      "single_word": false,
      "lstrip": false,
      "rstrip": false,
      "normalized": false,
      "special": true
    },
    {
      "id": 69,
      "content": "\\rangle",
      "single_word": false,
      "lstrip": false,
      "rstrip": false,
      "normalized": false,
      "special": true
    },
    {
      "id": 70,
      "content": "\\[",
      "single_word": false,
      "lstrip": false,
      "rstrip": false,
      "normalized": false,
      "special": true
    },
    {
      "id": 71,
      "content": "\\]",
      "single_word": false,
      "lstrip": false,
      "rstrip": false,
      "normalized": false,
      "special": true
    },
    {
      "id": 72,
      "content": "\\{",
      "single_word": false,
      "lstrip": false,
      "rstrip": false,
      "normalized": false,
      "special": true
    },
    {
      "id": 73,
      "content": "\\}",
      "single_word": false,
      "lstrip": false,
      "rstrip": false,
      "normalized": false,
      "special": true
    },
    {
      "id": 74,
      "content": "$",
      "single_word": false,
      "lstrip": false,
      "rstrip": false,
      "normalized": false,
      "special": true
    }
  ],
  "normalizer": null,
  "pre_tokenizer": {
    "type": "Whitespace"
  },
  "post_processor": null,
  "decoder": null,
  "model": {
    "type": "BPE",
    "dropout": null,
    "unk_token": "<unk>",
    "continuing_subword_prefix": null,
    "end_of_word_suffix": null,
    "fuse_unk": false,
    "byte_fallback": false,
    "ignore_merges": false,
    "vocab": {
      "<pad>": 0,
      "<unk>": 1,
      "<bos>": 2,
      "<eos>": 3,
      "0": 4,
      "1": 5,
      "2": 6,
      "3": 7,
      "4": 8,
      "5": 9,
      "6": 10,
      "7": 11,
      "8": 12,
      "9": 13,
      "+": 14,
      "-": 15,
      "*": 16,
      "/": 17,
      "(": 18,
      ")": 19,
      "=": 20,
      "^": 21,
      ",": 22,
      ".": 23,
      "!": 24,
      "<": 25,
      ">": 26,
      "[": 27,
      "]": 28,
      "{": 29,
      "}": 30,
      "|": 31,
      "\\frac": 32,
      "\\sqrt": 33,
      "\\sum": 34,
      "\\prod": 35,
      "\\int": 36,
      "\\lim": 37,
      "\\sin": 38,
      "\\cos": 39,
      "\\tan": 40,
      "\\ln": 41,
      "\\alpha": 42,
      "\\beta": 43,
      "\\gamma": 44,
      "\\delta": 45,
      "\\epsilon": 46,
      "\\theta": 47,
      "\\pi": 48,
      "\\phi": 49,
      "\\psi": 50,
      "\\omega": 51,
      "\\left": 52,
      "\\right": 53,
      "\\hat": 54,
      "\\bar": 55,
      "\\tilde": 56,
      "\\vec": 57,
      "\\mathbb": 58,
      "\\mathcal": 59,
      "\\mathbf": 60,
      "\\mathrm": 61,
      "\\ge": 62,
      "\\le": 63,
      "\\neq": 64,
      "\\approx": 65,
      "\\equiv": 66,
      "\\l": 67,
      "\\langle": 68,
      "\\rangle": 69,
      "\\[": 70,
      "\\]": 71,
      "\\{": 72,
      "\\}": 73,
      "$": 74,
      "\u0001": 75,
      "\u0011": 76,
      "\u0013": 77,
      "\u001b": 78,
      "\"": 79,
      "#": 80,
      "%": 81,
      "&": 82,
      "'": 83,
      ":": 84,
      ";": 85,
      "?": 86,
      "@": 87,
      "A": 88,
      "B": 89,
      "C": 90,
      "D": 91,
      "E": 92,
      "F": 93,
      "G": 94,
      "H": 95,
      "I": 96,
      "J": 97,
      "K": 98,
      "L": 99,
      "M": 100,
      "N": 101,
      "O": 102,
      "P": 103,
      "Q": 104,
      "R": 105,
      "S": 106,
      "T": 107,
      "U": 108,
      "V": 109,
      "W": 110,
      "X": 111,
      "Y": 112,
      "Z": 113,
      "\\": 114,
      "_": 115,
      "`": 116,
      "a": 117,
      "b": 118,
      "c": 119,
      "d": 120,
      "e": 121,
      "f": 122,
      "g": 123,
      "h": 124,
      "i": 125,
      "j": 126,
      "k": 127,
      "l": 128,
      "m": 129,
      "n": 130,
      "o": 131,
      "p": 132,
      "q": 133,
      "r": 134,
      "s": 135,
      "t": 136,
      "u": 137,
      "v": 138,
      "w": 139,
      "x": 140,
      "y": 141,
      "z": 142,
      "~": 143,
      "": 144,
      "¡": 145,
      "¢": 146,
      "£": 147,
      "¤": 148,
      "¥": 149,
      "§": 150,
      "©": 151,
      "ª": 152,
      "«": 153,
      "¬": 154,
      "­": 155,
      "®": 156,
      "°": 157,
      "±": 158,
      "²": 159,
      "³": 160,
      "´": 161,
      "µ": 162,
      "·": 163,
      "¹": 164,
      "º": 165,
      "»": 166,
      "¼": 167,
      "½": 168,
      "¾": 169,
      "¿": 170,
      "À": 171,
      "Á": 172,
      "Â": 173,
      "Ã": 174,
      "Ä": 175,
      "Å": 176,
      "Ç": 177,
      "È": 178,
      "É": 179,
      "Ê": 180,
      "Í": 181,
      "Ð": 182,
      "Ñ": 183,
      "Ó": 184,
      "Ô": 185,
      "Ö": 186,
      "×": 187,
      "Ø": 188,
      "Ú": 189,
      "Ü": 190,
      "Ý": 191,
      "ß": 192,
      "à": 193,
      "á": 194,
      "â": 195,
      "ã": 196,
      "ä": 197,
      "å": 198,
      "æ": 199,
      "ç": 200,
      "è": 201,
      "é": 202,
      "ê": 203,
      "ë": 204,
      "ì": 205,
      "í": 206,
      "î": 207,
      "ï": 208,
      "ñ": 209,
      "ò": 210,
      "ó": 211,
      "ô": 212,
      "õ": 213,
      "ö": 214,
      "÷": 215,
      "ø": 216,
      "ù": 217,
      "ú": 218,
      "û": 219,
      "ü": 220,
      "ý": 221,
      "Ā": 222,
      "ā": 223,
      "Ă": 224,
      "ă": 225,
      "ą": 226,
      "Ć": 227,
      "ć": 228,
      "Č": 229,
      "č": 230,
      "Đ": 231,
      "đ": 232,
      "ē": 233,
      "ė": 234,
      "ę": 235,
      "ě": 236,
      "ğ": 237,
      "ĩ": 238,
      "ī": 239,
      "į": 240,
      "İ": 241,
      "ı": 242,
      "Ł": 243,
      "ł": 244,
      "ń": 245,
      "ņ": 246,
      "Ō": 247,
      "ō": 248,
      "ő": 249,
      "œ": 250,
      "Ř": 251,
      "ř": 252,
      "Ś": 253,
      "ś": 254,
      "Ş": 255,
      "ş": 256,
      "Š": 257,
      "š": 258,
      "ť": 259,
      "ũ": 260,
      "ū": 261,
      "ų": 262,
      "ź": 263,
      "Ż": 264,
      "ż": 265,
      "ž": 266,
      "Ƙ": 267,
      "ƙ": 268,
      "ơ": 269,
      "ư": 270,
      "ǝ": 271,
      "ț": 272,
      "ɒ": 273,
      "ɔ": 274,
      "ɕ": 275,
      "ɗ": 276,
      "ə": 277,
      "ɛ": 278,
      "ɪ": 279,
      "ʀ": 280,
      "ʂ": 281,
      "ʃ": 282,
      "ʿ": 283,
      "ˆ": 284,
      "ˈ": 285,
      "ː": 286,
      "̀": 287,
      "́": 288,
      "̂": 289,
      "̆": 290,
      "̇": 291,
      "̈": 292,
      "̣": 293,
      "̧": 294,
      "͕": 295,
      "͡": 296,
      "Ά": 297,
      "Ό": 298,
      "Α": 299,
      "Γ": 300,
      "Δ": 301,
      "Ε": 302,
      "Η": 303,
      "Θ": 304,
      "Ι": 305,
      "Κ": 306,
      "Λ": 307,
      "Μ": 308,
      "Ν": 309,
      "Ο": 310,
      "Π": 311,
      "Ρ": 312,
      "Σ": 313,
      "Τ": 314,
      "Υ": 315,
      "Ψ": 316,
      "Ω": 317,
      "ά": 318,
      "έ": 319,
      "ή": 320,
      "ί": 321,
      "α": 322,
      "β": 323,
      "γ": 324,
      "δ": 325,
      "ε": 326,
      "ζ": 327,
      "η": 328,
      "θ": 329,
      "ι": 330,
      "κ": 331,
      "λ": 332,
      "μ": 333,
      "ν": 334,
      "ξ": 335,
      "ο": 336,
      "π": 337,
      "ρ": 338,
      "ς": 339,
      "σ": 340,
      "τ": 341,
      "υ": 342,
      "φ": 343,
      "χ": 344,
      "ψ": 345,
      "ω": 346,
      "ϊ": 347,
      "ό": 348,
      "ύ": 349,
      "ώ": 350,
      "ϕ": 351,
      "Є": 352,
      "І": 353,
      "А": 354,
      "Б": 355,
      "В": 356,
      "Г": 357,
      "Д": 358,
      "Е": 359,
      "Ж": 360,
      "З": 361,
      "И": 362,
      "Й": 363,
      "К": 364,
      "Л": 365,
      "М": 366,
      "Н": 367,
      "О": 368,
      "П": 369,
      "Р": 370,
      "С": 371,
      "Т": 372,
      "У": 373,
      "Ф": 374,
      "Х": 375,
      "Ц": 376,
      "Ч": 377,
      "Ш": 378,
      "Щ": 379,
      "Ъ": 380,
      "Ы": 381,
      "Ь": 382,
      "Э": 383,
      "Ю": 384,
      "Я": 385,
      "а": 386,
      "б": 387,
      "в": 388,
      "г": 389,
      "д": 390,
      "е": 391,
      "ж": 392,
      "з": 393,
      "и": 394,
      "й": 395,
      "к": 396,
      "л": 397,
      "м": 398,
      "н": 399,
      "о": 400,
      "п": 401,
      "р": 402,
      "с": 403,
      "т": 404,
      "у": 405,
      "ф": 406,
      "х": 407,
      "ц": 408,
      "ч": 409,
      "ш": 410,
      "щ": 411,
      "ъ": 412,
      "ы": 413,
      "ь": 414,
      "э": 415,
      "ю": 416,
      "я": 417,
      "ё": 418,
      "є": 419,
      "і": 420,
      "ї": 421,
      "ј": 422,
      "љ": 423,
      "њ": 424,
      "ң": 425,
      "ү": 426,
      "Ө": 427,
      "ө": 428,
      "א": 429,
      "ב": 430,
      "ג": 431,
      "ד": 432,
      "ה": 433,
      "ו": 434,
      "ז": 435,
      "ח": 436,
      "ט": 437,
      "י": 438,
      "כ": 439,
      "ל": 440,
      "ם": 441,
      "מ": 442,
      "ן": 443,
      "נ": 444,
      "ס": 445,
      "ע": 446,
      "ף": 447,
      "פ": 448,
      "צ": 449,
      "ק": 450,
      "ר": 451,
      "ש": 452,
      "ת": 453,
      "،": 454,
      "؛": 455,
      "؟": 456,
      "ء": 457,
      "آ": 458,
      "أ": 459,
      "ؤ": 460,
      "إ": 461,
      "ئ": 462,
      "ا": 463,
      "ب": 464,
      "ة": 465,
      "ت": 466,
      "ث": 467,
      "ج": 468,
      "ح": 469,
      "خ": 470,
      "د": 471,
      "ذ": 472,
      "ر": 473,
      "ز": 474,
      "س": 475,
      "ش": 476,
      "ص": 477,
      "ض": 478,
      "ط": 479,
      "ظ": 480,
      "ع": 481,
      "غ": 482,
      "ف": 483,
      "ق": 484,
      "ك": 485,
      "ل": 486,
      "م": 487,
      "ن": 488,
      "ه": 489,
      "و": 490,
      "ى": 491,
      "ي": 492,
      "ً": 493,
      "ٌ": 494,
      "ٍ": 495,
      "َ": 496,
      "ُ": 497,
      "ِ": 498,
      "ّ": 499,
      "ْ": 500,
      "٠": 501,
      "١": 502,
      "٩": 503,
      "ٺ": 504,
      "ٻ": 505,
      "ټ": 506,
      "ٽ": 507,
      "پ": 508,
      "ٿ": 509,
      "څ": 510,
      "چ": 511,
      "ڇ": 512,
      "ڊ": 513,
      "ڌ": 514,
      "ڏ": 515,
      "ړ": 516,
      "ږ": 517,
      "ژ": 518,
      "ڙ": 519,
      "ښ": 520,
      "ک": 521,
      "ڪ": 522,
      "ګ": 523,
      "گ": 524,
      "ڳ": 525,
      "ں": 526,
      "ڻ": 527,
      "ڼ": 528,
      "ھ": 529,
      "ہ": 530,
      "ی": 531,
      "ې": 532,
      "ے": 533,
      "۔": 534,
      "۪": 535,
      "۰": 536,
      "۱": 537,
      "۲": 538,
      "۳": 539,
      "۴": 540,
      "۵": 541,
      "۶": 542,
      "۷": 543,
      "۸": 544,
      "۽": 545,
      "۾": 546,
      "ँ": 547,
      "ं": 548,
      "ः": 549,
      "अ": 550,
      "आ": 551,
      "इ": 552,
      "ई": 553,
      "उ": 554,
      "ऊ": 555,
      "ए": 556,
      "ऐ": 557,
      "ओ": 558,
      "औ": 559,
      "क": 560,
      "ख": 561,
      "ग": 562,
      "घ": 563,
      "ङ": 564,
      "च": 565,
      "छ": 566,
      "ज": 567,
      "झ": 568,
      "ञ": 569,
      "ट": 570,
      "ठ": 571,
      "ड": 572,
      "ढ": 573,
      "ण": 574,
      "त": 575,
      "थ": 576,
      "द": 577,
      "ध": 578,
      "न": 579,
      "प": 580,
      "फ": 581,
      "ब": 582,
      "भ": 583,
      "म": 584,
      "य": 585,
      "र": 586,
      "ल": 587,
      "ळ": 588,
      "व": 589,
      "श": 590,
      "ष": 591,
      "स": 592,
      "ह": 593,
      "ा": 594,
      "ि": 595,
      "ी": 596,
      "ु": 597,
      "ू": 598,
      "ृ": 599,
      "ॅ": 600,
      "े": 601,
      "ै": 602,
      "ॉ": 603,
      "ो": 604,
      "ौ": 605,
      "्": 606,
      "।": 607,
      "॥": 608,
      "०": 609,
      "१": 610,
      "२": 611,
      "३": 612,
      "४": 613,
      "५": 614,
      "७": 615,
      "८": 616,
      "९": 617,
      "ং": 618,
      "অ": 619,
      "আ": 620,
      "ই": 621,
      "উ": 622,
      "এ": 623,
      "ও": 624,
      "ক": 625,
      "খ": 626,
      "গ": 627,
      "ঘ": 628,
      "ঙ": 629,
      "চ": 630,
      "ছ": 631,
      "জ": 632,
      "ঞ": 633,
      "ট": 634,
      "ঠ": 635,
      "ড": 636,
      "ণ": 637,
      "ত": 638,
      "থ": 639,
      "দ": 640,
      "ধ": 641,
      "ন": 642,
      "প": 643,
      "ফ": 644,
      "ব": 645,
      "ভ": 646,
      "ম": 647,
      "য": 648,
      "র": 649,
      "ল": 650,
      "শ": 651,
      "ষ": 652,
      "স": 653,
      "হ": 654,
      "়": 655,
      "া": 656,
      "ি": 657,
      "ী": 658,
      "ু": 659,
      "ূ": 660,
      "ৃ": 661,
      "ে": 662,
      "ো": 663,
      "ৌ": 664,
      "্": 665,
      "ৎ": 666,
      "য়": 667,
      "০": 668,
      "১": 669,
      "২": 670,
      "৩": 671,
      "৪": 672,
      "৫": 673,
      "৬": 674,
      "৭": 675,
      "৮": 676,
      "৯": 677,
      "ਂ": 678,
      "ਃ": 679,
      "ਅ": 680,
      "ਆ": 681,
      "ਇ": 682,
      "ਈ": 683,
      "ਉ": 684,
      "ਊ": 685,
      "ਏ": 686,
      "ਐ": 687,
      "ਓ": 688,
      "ਔ": 689,
      "ਕ": 690,
      "ਖ": 691,
      "ਗ": 692,
      "ਘ": 693,
      "ਚ": 694,
      "ਛ": 695,
      "ਜ": 696,
      "ਝ": 697,
      "ਞ": 698,
      "ਟ": 699,
      "ਠ": 700,
      "ਡ": 701,
      "ਢ": 702,
      "ਣ": 703,
      "ਤ": 704,
      "ਥ": 705,
      "ਦ": 706,
      "ਧ": 707,
      "ਨ": 708,
      "ਪ": 709,
      "ਫ": 710,
      "ਬ": 711,
      "ਭ": 712,
      "ਮ": 713,
      "ਯ": 714,
      "ਰ": 715,
      "ਲ": 716,
      "ਵ": 717,
      "ਸ਼": 718,
      "ਸ": 719,
      "ਹ": 720,
      "਼": 721,
      "ਾ": 722,
      "ਿ": 723,
      "ੀ": 724,
      "ੁ": 725,
      "ੂ": 726,
      "ੇ": 727,
      "ੈ": 728,
      "ੋ": 729,
      "ੌ": 730,
      "੍": 731,
      "ੑ": 732,
      "ਖ਼": 733,
      "ਜ਼": 734,
      "ੜ": 735,
      "ਫ਼": 736,
      "੦": 737,
      "੧": 738,
      "੨": 739,
      "੩": 740,
      "੪": 741,
      "੫": 742,
      "੬": 743,
      "੭": 744,
      "੮": 745,
      "੯": 746,
      "ੰ": 747,
      "ੱ": 748,
      "ੴ": 749,
      "ં": 750,
      "અ": 751,
      "આ": 752,
      "ઇ": 753,
      "ઈ": 754,
      "ઉ": 755,
      "ઊ": 756,
      "એ": 757,
      "ઓ": 758,
      "ક": 759,
      "ખ": 760,
      "ગ": 761,
      "ઘ": 762,
      "ચ": 763,
      "છ": 764,
      "જ": 765,
      "ઝ": 766,
      "ટ": 767,
      "ઠ": 768,
      "ડ": 769,
      "ણ": 770,
      "ત": 771,
      "થ": 772,
      "દ": 773,
      "ધ": 774,
      "ન": 775,
      "પ": 776,
      "ફ": 777,
      "બ": 778,
      "ભ": 779,
      "મ": 780,
      "ય": 781,
      "ર": 782,
      "લ": 783,
      "ળ": 784,
      "વ": 785,
      "શ": 786,
      "ષ": 787,
      "સ": 788,
      "હ": 789,
      "ા": 790,
      "િ": 791,
      "ી": 792,
      "ુ": 793,
      "ૂ": 794,
      "ૃ": 795,
      "ે": 796,
      "ો": 797,
      "ૌ": 798,
      "્": 799,
      "૦": 800,
      "૧": 801,
      "૨": 802,
      "૩": 803,
      "૪": 804,
      "૫": 805,
      "૬": 806,
      "૭": 807,
      "அ": 808,
      "ஆ": 809,
      "இ": 810,
      "ஈ": 811,
      "உ": 812,
      "ஊ": 813,
      "எ": 814,
      "ஏ": 815,
      "ஐ": 816,
      "ஒ": 817,
      "ஓ": 818,
      "க": 819,
      "ங": 820,
      "ச": 821,
      "ஜ": 822,
      "ஞ": 823,
      "ட": 824,
      "ண": 825,
      "த": 826,
      "ந": 827,
      "ன": 828,
      "ப": 829,
      "ம": 830,
      "ய": 831,
      "ர": 832,
      "ற": 833,
      "ல": 834,
      "ள": 835,
      "ழ": 836,
      "வ": 837,
      "ஷ": 838,
      "ஸ": 839,
      "ஹ": 840,
      "ா": 841,
      "ி": 842,
      "ீ": 843,
      "ு": 844,
      "ூ": 845,
      "ெ": 846,
      "ே": 847,
      "ை": 848,
      "ொ": 849,
      "ோ": 850,
      "ௌ": 851,
      "்": 852,
      "ం": 853,
      "ః": 854,
      "అ": 855,
      "ఆ": 856,
      "ఇ": 857,
      "ఈ": 858,
      "ఉ": 859,
      "ఊ": 860,
      "ఎ": 861,
      "ఏ": 862,
      "ఐ": 863,
      "ఒ": 864,
      "ఓ": 865,
      "క": 866,
      "ఖ": 867,
      "గ": 868,
      "ఘ": 869,
      "చ": 870,
      "ఛ": 871,
      "జ": 872,
      "ఞ": 873,
      "ట": 874,
      "ఠ": 875,
      "డ": 876,
      "ఢ": 877,
      "ణ": 878,
      "త": 879,
      "థ": 880,
      "ద": 881,
      "ధ": 882,
      "న": 883,
      "ప": 884,
      "ఫ": 885,
      "బ": 886,
      "భ": 887,
      "మ": 888,
      "య": 889,
      "ర": 890,
      "ల": 891,
      "ళ": 892,
      "వ": 893,
      "శ": 894,
      "ష": 895,
      "స": 896,
      "హ": 897,
      "ా": 898,
      "ి": 899,
      "ీ": 900,
      "ు": 901,
      "ూ": 902,
      "ృ": 903,
      "ె": 904,
      "ే": 905,
      "ై": 906,
      "ొ": 907,
      "ో": 908,
      "ౌ": 909,
      "్": 910,
      "ಅ": 911,
      "ಉ": 912,
      "ಗ": 913,
      "ಜ": 914,
      "ತ": 915,
      "ದ": 916,
      "ನ": 917,
      "ಪ": 918,
      "ಬ": 919,
      "ಮ": 920,
      "ಯ": 921,
      "ರ": 922,
      "ಲ": 923,
      "ಳ": 924,
      "ವ": 925,
      "ಶ": 926,
      "ಸ": 927,
      "ಾ": 928,
      "ಿ": 929,
      "ು": 930,
      "ೆ": 931,
      "ೇ": 932,
      "್": 933,
      "ം": 934,
      "അ": 935,
      "ഇ": 936,
      "ഉ": 937,
      "എ": 938,
      "ഏ": 939,
      "ഒ": 940,
      "ഓ": 941,
      "ക": 942,
      "ഖ": 943,
      "ഗ": 944,
      "ങ": 945,
      "ച": 946,
      "ജ": 947,
      "ഞ": 948,
      "ട": 949,
      "ഡ": 950,
      "ണ": 951,
      "ത": 952,
      "ഥ": 953,
      "ദ": 954,
      "ധ": 955,
      "ന": 956,
      "പ": 957,
      "ഫ": 958,
      "ബ": 959,
      "ഭ": 960,
      "മ": 961,
      "യ": 962,
      "ര": 963,
      "റ": 964,
      "ല": 965,
      "ള": 966,
      "ഴ": 967,
      "വ": 968,
      "ശ": 969,
      "ഷ": 970,
      "സ": 971,
      "ഹ": 972,
      "ാ": 973,
      "ി": 974,
      "ീ": 975,
      "ു": 976,
      "ൂ": 977,
      "ൃ": 978,
      "െ": 979,
      "േ": 980,
      "ൈ": 981,
      "ൊ": 982,
      "ോ": 983,
      "ൌ": 984,
      "്": 985,
      "ൻ": 986,
      "ർ": 987,
      "ൽ": 988,
      "ൾ": 989,
      "ං": 990,
      "අ": 991,
      "ආ": 992,
      "ඇ": 993,
      "ඉ": 994,
      "උ": 995,
      "එ": 996,
      "ඒ": 997,
      "ඔ": 998,
      "ක": 999,
      "ඛ": 1000,
      "ග": 1001,
      "ච": 1002,
      "ජ": 1003,
      "ට": 1004,
      "ඩ": 1005,
      "ණ": 1006,
      "ත": 1007,
      "ථ": 1008,
      "ද": 1009,
      "ධ": 1010,
      "න": 1011,
      "ඳ": 1012,
      "ප": 1013,
      "බ": 1014,
      "භ": 1015,
      "ම": 1016,
      "ඹ": 1017,
      "ය": 1018,
      "ර": 1019,
      "ල": 1020,
      "ව": 1021,
      "ශ": 1022,
      "ෂ": 1023,
      "ස": 1024,
      "හ": 1025,
      "ළ": 1026,
      "ෆ": 1027,
      "්": 1028,
      "ා": 1029,
      "ැ": 1030,
      "ෑ": 1031,
      "ි": 1032,
      "ී": 1033,
      "ු": 1034,
      "ූ": 1035,
      "ෘ": 1036,
      "ෙ": 1037,
      "ේ": 1038,
      "ෛ": 1039,
      "ො": 1040,
      "ෝ": 1041,
      "ก": 1042,
      "ค": 1043,
      "ง": 1044,
      "จ": 1045,
      "ณ": 1046,
      "ด": 1047,
      "ต": 1048,
      "ถ": 1049,
      "ท": 1050,
      "ธ": 1051,
      "น": 1052,
      "บ": 1053,
      "ป": 1054,
      "ฝ": 1055,
      "พ": 1056,
      "ม": 1057,
      "ย": 1058,
      "ร": 1059,
      "ล": 1060,
      "ว": 1061,
      "ห": 1062,
      "อ": 1063,
      "ะ": 1064,
      "ั": 1065,
      "า": 1066,
      "ำ": 1067,
      "ิ": 1068,
      "ี": 1069,
      "ื": 1070,
      "ุ": 1071,
      "ู": 1072,
      "เ": 1073,
      "แ": 1074,
      "โ": 1075,
      "ใ": 1076,
      "ไ": 1077,
      "่": 1078,
      "้": 1079,
      "༠": 1080,
      "༡": 1081,
      "༢": 1082,
      "༣": 1083,
      "༥": 1084,
      "༦": 1085,
      "༧": 1086,
      "༩": 1087,
      "က": 1088,
      "ခ": 1089,
      "င": 1090,
      "စ": 1091,
      "ဆ": 1092,
      "တ": 1093,
      "န": 1094,
      "ပ": 1095,
      "ဘ": 1096,
      "မ": 1097,
      "ယ": 1098,
      "ရ": 1099,
      "လ": 1100,
      "သ": 1101,
      "အ": 1102,
      "ါ": 1103,
      "ာ": 1104,
      "ိ": 1105,
      "ီ": 1106,
      "ု": 1107,
      "ေ": 1108,
      "ဲ": 1109,
      "့": 1110,
      "း": 1111,
      "်": 1112,
      "ျ": 1113,
      "ြ": 1114,
      "ွ": 1115,
      "။": 1116,
      "ህ": 1117,
      "ለ": 1118,
      "ል": 1119,
      "ሐ": 1120,
      "መ": 1121,
      "ም": 1122,
      "ሰ": 1123,
      "ስ": 1124,
      "ቅ": 1125,
      "ባ": 1126,
      "ት": 1127,
      "ቸ": 1128,
      "ች": 1129,
      "ና": 1130,
      "ን": 1131,
      "ኝ": 1132,
      "አ": 1133,
      "ወ": 1134,
      "ው": 1135,
      "ዓ": 1136,
      "ዝ": 1137,
      "የ": 1138,
      "ያ": 1139,
      "ይ": 1140,
      "ድ": 1141,
      "ዶ": 1142,
      "ገ": 1143,
      "ጠ": 1144,
      "ጣ": 1145,
      "ፋ": 1146,
      "ក": 1147,
      "ខ": 1148,
      "គ": 1149,
      "ង": 1150,
      "ច": 1151,
      "ឆ": 1152,
      "ជ": 1153,
      "ឈ": 1154,
      "ញ": 1155,
      "ដ": 1156,
      "ឌ": 1157,
      "ត": 1158,
      "ថ": 1159,
      "ទ": 1160,
      "ធ": 1161,
      "ន": 1162,
      "ប": 1163,
      "ព": 1164,
      "ភ": 1165,
      "ម": 1166,
      "យ": 1167,
      "រ": 1168,
      "ល": 1169,
      "វ": 1170,
      "ស": 1171,
      "ហ": 1172,
      "ឡ": 1173,
      "អ": 1174,
      "ឱ": 1175,
      "ា": 1176,
      "ិ": 1177,
      "ី": 1178,
      "ឹ": 1179,
      "ុ": 1180,
      "ូ": 1181,
      "ួ": 1182,
      "ើ": 1183,
      "ៀ": 1184,
      "េ": 1185,
      "ែ": 1186,
      "ៃ": 1187,
      "ោ": 1188,
      "ៅ": 1189,
      "ំ": 1190,
      "ះ": 1191,
      "៉": 1192,
      "៊": 1193,
      "់": 1194,
      "័": 1195,
      "្": 1196,
      "។": 1197,
      "ᴀ": 1198,
      "ᴄ": 1199,
      "ᴇ": 1200,
      "ᴍ": 1201,
      "ᴏ": 1202,
      "ᴛ": 1203,
      "ᴜ": 1204,
      "ᴠ": 1205,
      "ᴮ": 1206,
      "ᵇ": 1207,
      "Ḫ": 1208,
      "ṃ": 1209,
      "Ṣ": 1210,
      "ṣ": 1211,
      "ṭ": 1212,
      "ạ": 1213,
      "ả": 1214,
      "ấ": 1215,
      "ầ": 1216,
      "ẩ": 1217,
      "ẫ": 1218,
      "ậ": 1219,
      "ắ": 1220,
      "ằ": 1221,
      "ẳ": 1222,
      "ẵ": 1223,
      "ặ": 1224,
      "Ẹ": 1225,
      "ẹ": 1226,
      "ẻ": 1227,
      "ẽ": 1228,
      "ế": 1229,
      "ề": 1230,
      "ể": 1231,
      "ễ": 1232,
      "ệ": 1233,
      "ỉ": 1234,
      "ị": 1235,
      "Ọ": 1236,
      "ọ": 1237,
      "ỏ": 1238,
      "ố": 1239,
      "ồ": 1240,
      "ổ": 1241,
      "ỗ": 1242,
      "ộ": 1243,
      "ớ": 1244,
      "ờ": 1245,
      "Ở": 1246,
      "ở": 1247,
      "ỡ": 1248,
      "ợ": 1249,
      "ụ": 1250,
      "Ủ": 1251,
      "ủ": 1252,
      "ứ": 1253,
      "ừ": 1254,
      "ử": 1255,
      "ữ": 1256,
      "ự": 1257,
      "ỳ": 1258,
      "ỷ": 1259,
      "ỹ": 1260,
      "​": 1261,
      "‌": 1262,
      "‍": 1263,
      "‎": 1264,
      "‏": 1265,
      "‒": 1266,
      "–": 1267,
      "—": 1268,
      "―": 1269,
      "‖": 1270,
      "‘": 1271,
      "’": 1272,
      "‚": 1273,
      "“": 1274,
      "”": 1275,
      "„": 1276,
      "†": 1277,
      "‡": 1278,
      "•": 1279,
      "…": 1280,
      "′": 1281,
      "※": 1282,
      "⁄": 1283,
      "⁝": 1284,
      "⁡": 1285,
      "₀": 1286,
      "₁": 1287,
      "₂": 1288,
      "₃": 1289,
      "₄": 1290,
      "₆": 1291,
      "₇": 1292,
      "₈": 1293,
      "ₓ": 1294,
      "₦": 1295,
      "€": 1296,
      "₹": 1297,
      "℃": 1298,
      "℉": 1299,
      "№": 1300,
      "™": 1301,
      "Ω": 1302,
      "Ⅰ": 1303,
      "Ⅱ": 1304,
      "Ⅲ": 1305,
      "Ⅳ": 1306,
      "←": 1307,
      "↑": 1308,
      "→": 1309,
      "↓": 1310,
      "↔": 1311,
      "⇓": 1312,
      "∀": 1313,
      "∂": 1314,
      "∃": 1315,
      "∆": 1316,
      "∇": 1317,
      "∈": 1318,
      "∉": 1319,
      "∏": 1320,
      "∑": 1321,
      "−": 1322,
      "∙": 1323,
      "√": 1324,
      "∝": 1325,
      "∞": 1326,
      "∠": 1327,
      "∥": 1328,
      "∩": 1329,
      "∫": 1330,
      "∴": 1331,
      "∶": 1332,
      "∼": 1333,
      "≈": 1334,
      "≠": 1335,
      "≤": 1336,
      "≥": 1337,
      "≧": 1338,
      "≪": 1339,
      "≫": 1340,
      "⊂": 1341,
      "⊙": 1342,
      "⊥": 1343,
      "⋅": 1344,
      "⋯": 1345,
      "⌊": 1346,
      "⌋": 1347,
      "〈": 1348,
      "〉": 1349,
      "①": 1350,
      "②": 1351,
      "③": 1352,
      "④": 1353,
      "⑤": 1354,
      "⑥": 1355,
      "⑦": 1356,
      "⑧": 1357,
      "█": 1358,
      "□": 1359,
      "▲": 1360,
      "△": 1361,
      "▼": 1362,
      "◊": 1363,
      "○": 1364,
      "◎": 1365,
      "●": 1366,
      "◦": 1367,
      "★": 1368,
      "☆": 1369,
      "☼": 1370,
      "♂": 1371,
      "♙": 1372,
      "♠": 1373,
      "♫": 1374,
      "⚡": 1375,
      "✅": 1376,
      "✍": 1377,
      "✓": 1378,
      "✨": 1379,
      "❤": 1380,
      "❯": 1381,
      "➞": 1382,
      "➡": 1383,
      "➤": 1384,
      "⩽": 1385,
      "⬇": 1386,
      "⭐": 1387,
      "、": 1388,
      "。": 1389,
      "々": 1390,
      "《": 1391,
      "》": 1392,
      "「": 1393,
      "」": 1394,
      "『": 1395,
      "』": 1396,
      "【": 1397,
      "】": 1398,
      "あ": 1399,
      "い": 1400,
      "う": 1401,
      "え": 1402,
      "お": 1403,
      "か": 1404,
      "が": 1405,
      "き": 1406,
      "ぎ": 1407,
      "く": 1408,
      "ぐ": 1409,
      "け": 1410,
      "げ": 1411,
      "こ": 1412,
      "ご": 1413,
      "さ": 1414,
      "ざ": 1415,
      "し": 1416,
      "じ": 1417,
      "す": 1418,
      "せ": 1419,
      "そ": 1420,
      "た": 1421,
      "だ": 1422,
      "ち": 1423,
      "っ": 1424,
      "つ": 1425,
      "づ": 1426,
      "て": 1427,
      "で": 1428,
      "と": 1429,
      "ど": 1430,
      "な": 1431,
      "に": 1432,
      "の": 1433,
      "は": 1434,
      "ば": 1435,
      "ひ": 1436,
      "び": 1437,
      "ふ": 1438,
      "ぶ": 1439,
      "へ": 1440,
      "べ": 1441,
      "ほ": 1442,
      "ま": 1443,
      "み": 1444,
      "む": 1445,
      "め": 1446,
      "も": 1447,
      "ゃ": 1448,
      "や": 1449,
      "ゅ": 1450,
      "ゆ": 1451,
      "ょ": 1452,
      "よ": 1453,
      "ら": 1454,
      "り": 1455,
      "る": 1456,
      "れ": 1457,
      "ろ": 1458,
      "わ": 1459,
      "を": 1460,
      "ん": 1461,
      "ア": 1462,
      "ィ": 1463,
      "イ": 1464,
      "ウ": 1465,
      "ェ": 1466,
      "エ": 1467,
      "ォ": 1468,
      "オ": 1469,
      "カ": 1470,
      "ガ": 1471,
      "キ": 1472,
      "ギ": 1473,
      "ク": 1474,
      "グ": 1475,
      "ケ": 1476,
      "ゲ": 1477,
      "コ": 1478,
      "ゴ": 1479,
      "サ": 1480,
      "ザ": 1481,
      "シ": 1482,
      "ジ": 1483,
      "ス": 1484,
      "ズ": 1485,
      "セ": 1486,
      "ゼ": 1487,
      "ソ": 1488,
      "タ": 1489,
      "ダ": 1490,
      "チ": 1491,
      "ッ": 1492,
      "ツ": 1493,
      "テ": 1494,
      "デ": 1495,
      "ト": 1496,
      "ド": 1497,
      "ナ": 1498,
      "ニ": 1499,
      "ヌ": 1500,
      "ネ": 1501,
      "ノ": 1502,
      "ハ": 1503,
      "バ": 1504,
      "パ": 1505,
      "ヒ": 1506,
      "ビ": 1507,
      "ピ": 1508,
      "フ": 1509,
      "ブ": 1510,
      "プ": 1511,
      "ヘ": 1512,
      "ベ": 1513,
      "ペ": 1514,
      "ホ": 1515,
      "ボ": 1516,
      "ポ": 1517,
      "マ": 1518,
      "ミ": 1519,
      "ム": 1520,
      "メ": 1521,
      "モ": 1522,
      "ャ": 1523,
      "ュ": 1524,
      "ユ": 1525,
      "ョ": 1526,
      "ヨ": 1527,
      "ラ": 1528,
      "リ": 1529,
      "ル": 1530,
      "レ": 1531,
      "ロ": 1532,
      "ワ": 1533,
      "ン": 1534,
      "ヴ": 1535,
      "・": 1536,
      "ー": 1537,
      "一": 1538,
      "丁": 1539,
      "万": 1540,
      "三": 1541,
      "上": 1542,
      "下": 1543,
      "不": 1544,
      "与": 1545,
      "专": 1546,
      "且": 1547,
      "世": 1548,
      "业": 1549,
      "东": 1550,
      "両": 1551,
      "两": 1552,
      "严": 1553,
      "並": 1554,
      "个": 1555,
      "中": 1556,
      "串": 1557,
      "为": 1558,
      "主": 1559,
      "举": 1560,
      "么": 1561,
      "义": 1562,
      "之": 1563,
      "乐": 1564,
      "乔": 1565,
      "乗": 1566,
      "乘": 1567,
      "乙": 1568,
      "九": 1569,
      "也": 1570,
      "习": 1571,
      "买": 1572,
      "乱": 1573,
      "了": 1574,
      "予": 1575,
      "争": 1576,
      "事": 1577,
      "二": 1578,
      "于": 1579,
      "互": 1580,
      "五": 1581,
      "井": 1582,
      "亚": 1583,
      "些": 1584,
      "亡": 1585,
      "交": 1586,
      "产": 1587,
      "享": 1588,
      "京": 1589,
      "人": 1590,
      "亿": 1591,
      "什": 1592,
      "仅": 1593,
      "今": 1594,
      "介": 1595,
      "仍": 1596,
      "从": 1597,
      "仓": 1598,
      "仕": 1599,
      "他": 1600,
      "付": 1601,
      "代": 1602,
      "令": 1603,
      "以": 1604,
      "们": 1605,
      "仮": 1606,
      "件": 1607,
      "价": 1608,
      "任": 1609,
      "份": 1610,
      "企": 1611,
      "伍": 1612,
      "休": 1613,
      "众": 1614,
      "优": 1615,
      "伙": 1616,
      "会": 1617,
      "伝": 1618,
      "伟": 1619,
      "传": 1620,
      "伯": 1621,
      "估": 1622,
      "伴": 1623,
      "似": 1624,
      "但": 1625,
      "位": 1626,
      "低": 1627,
      "住": 1628,
      "佐": 1629,
      "体": 1630,
      "何": 1631,
      "余": 1632,
      "作": 1633,
      "你": 1634,
      "使": 1635,
      "來": 1636,
      "例": 1637,
      "供": 1638,
      "依": 1639,
      "侧": 1640,
      "便": 1641,
      "係": 1642,
      "促": 1643,
      "保": 1644,
      "信": 1645,
      "修": 1646,
      "倉": 1647,
      "個": 1648,
      "倍": 1649,
      "們": 1650,
      "倒": 1651,
      "候": 1652,
      "借": 1653,
      "値": 1654,
      "债": 1655,
      "值": 1656,
      "假": 1657,
      "偏": 1658,
      "做": 1659,
      "停": 1660,
      "健": 1661,
      "側": 1662,
      "偶": 1663,
      "備": 1664,
      "傷": 1665,
      "僅": 1666,
      "働": 1667,
      "像": 1668,
      "僕": 1669,
      "億": 1670,
      "優": 1671,
      "儲": 1672,
      "儿": 1673,
      "元": 1674,
      "充": 1675,
      "先": 1676,
      "光": 1677,
      "克": 1678,
      "免": 1679,
      "党": 1680,
      "入": 1681,
      "內": 1682,
      "全": 1683,
      "兩": 1684,
      "公": 1685,
      "六": 1686,
      "共": 1687,
      "关": 1688,
      "兴": 1689,
      "兵": 1690,
      "其": 1691,
      "具": 1692,
      "典": 1693,
      "养": 1694,
      "内": 1695,
      "円": 1696,
      "再": 1697,
      "写": 1698,
      "军": 1699,
      "农": 1700,
      "冬": 1701,
      "冲": 1702,
      "决": 1703,
      "况": 1704,
      "净": 1705,
      "准": 1706,
      "几": 1707,
      "処": 1708,
      "出": 1709,
      "击": 1710,
      "函": 1711,
      "刀": 1712,
      "刃": 1713,
      "分": 1714,
      "切": 1715,
      "刑": 1716,
      "划": 1717,
      "列": 1718,
      "则": 1719,
      "刚": 1720,
      "创": 1721,
      "初": 1722,
      "删": 1723,
      "判": 1724,
      "別": 1725,
      "利": 1726,
      "别": 1727,
      "到": 1728,
      "制": 1729,
      "刻": 1730,
      "則": 1731,
      "削": 1732,
      "前": 1733,
      "剖": 1734,
      "剧": 1735,
      "剩": 1736,
      "副": 1737,
      "割": 1738,
      "創": 1739,
      "劃": 1740,
      "劉": 1741,
      "力": 1742,
      "功": 1743,
      "加": 1744,
      "务": 1745,
      "动": 1746,
      "助": 1747,
      "励": 1748,
      "劳": 1749,
      "労": 1750,
      "势": 1751,
      "勇": 1752,
      "勉": 1753,
      "動": 1754,
      "務": 1755,
      "勝": 1756,
      "勢": 1757,
      "匂": 1758,
      "包": 1759,
      "化": 1760,
      "北": 1761,
      "匹": 1762,
      "区": 1763,
      "医": 1764,
      "十": 1765,
      "千": 1766,
      "升": 1767,
      "午": 1768,
      "半": 1769,
      "华": 1770,
      "协": 1771,
      "卒": 1772,
      "卓": 1773,
      "協": 1774,
      "单": 1775,
      "卖": 1776,
      "南": 1777,
      "単": 1778,
      "博": 1779,
      "占": 1780,
      "卡": 1781,
      "危": 1782,
      "即": 1783,
      "卵": 1784,
      "卷": 1785,
      "厅": 1786,
      "历": 1787,
      "压": 1788,
      "原": 1789,
      "厳": 1790,
      "去": 1791,
      "县": 1792,
      "参": 1793,
      "又": 1794,
      "及": 1795,
      "友": 1796,
      "双": 1797,
      "反": 1798,
      "収": 1799,
      "发": 1800,
      "取": 1801,
      "受": 1802,
      "变": 1803,
      "叙": 1804,
      "口": 1805,
      "古": 1806,
      "句": 1807,
      "另": 1808,
      "只": 1809,
      "召": 1810,
      "可": 1811,
      "台": 1812,
      "史": 1813,
      "右": 1814,
      "叶": 1815,
      "号": 1816,
      "司": 1817,
      "吃": 1818,
      "各": 1819,
      "合": 1820,
      "同": 1821,
      "名": 1822,
      "后": 1823,
      "向": 1824,
      "吗": 1825,
      "否": 1826,
      "吧": 1827,
      "含": 1828,
      "听": 1829,
      "启": 1830,
      "吸": 1831,
      "告": 1832,
      "员": 1833,
      "呢": 1834,
      "周": 1835,
      "味": 1836,
      "呼": 1837,
      "命": 1838,
      "和": 1839,
      "咨": 1840,
      "咱": 1841,
      "品": 1842,
      "响": 1843,
      "員": 1844,
      "哦": 1845,
      "哪": 1846,
      "售": 1847,
      "商": 1848,
      "啊": 1849,
      "問": 1850,
      "喉": 1851,
      "喜": 1852,
      "單": 1853,
      "嗯": 1854,
      "噢": 1855,
      "器": 1856,
      "嚨": 1857,
      "四": 1858,
      "回": 1859,
      "因": 1860,
      "团": 1861,
      "団": 1862,
      "园": 1863,
      "困": 1864,
      "围": 1865,
      "固": 1866,
      "国": 1867,
      "图": 1868,
      "圍": 1869,
      "園": 1870,
      "圖": 1871,
      "團": 1872,
      "土": 1873,
      "在": 1874,
      "地": 1875,
      "场": 1876,
      "址": 1877,
      "均": 1878,
      "坊": 1879,
      "坐": 1880,
      "坑": 1881,
      "块": 1882,
      "坛": 1883,
      "型": 1884,
      "城": 1885,
      "域": 1886,
      "執": 1887,
      "基": 1888,
      "堡": 1889,
      "報": 1890,
      "場": 1891,
      "塔": 1892,
      "塚": 1893,
      "填": 1894,
      "境": 1895,
      "増": 1896,
      "增": 1897,
      "壊": 1898,
      "士": 1899,
      "声": 1900,
      "売": 1901,
      "处": 1902,
      "备": 1903,
      "変": 1904,
      "复": 1905,
      "夏": 1906,
      "外": 1907,
      "多": 1908,
      "夜": 1909,
      "够": 1910,
      "大": 1911,
      "天": 1912,
      "太": 1913,
      "央": 1914,
      "失": 1915,
      "头": 1916,
      "奏": 1917,
      "契": 1918,
      "套": 1919,
      "奥": 1920,
      "奨": 1921,
      "女": 1922,
      "她": 1923,
      "好": 1924,
      "如": 1925,
      "妇": 1926,
      "妈": 1927,
      "妻": 1928,
      "始": 1929,
      "姬": 1930,
      "姻": 1931,
      "姿": 1932,
      "娱": 1933,
      "婂": 1934,
      "媒": 1935,
      "媛": 1936,
      "子": 1937,
      "孔": 1938,
      "字": 1939,
      "存": 1940,
      "季": 1941,
      "孤": 1942,
      "学": 1943,
      "孫": 1944,
      "學": 1945,
      "宀": 1946,
      "它": 1947,
      "宇": 1948,
      "守": 1949,
      "安": 1950,
      "完": 1951,
      "宏": 1952,
      "官": 1953,
      "宙": 1954,
      "定": 1955,
      "宜": 1956,
      "宝": 1957,
      "实": 1958,
      "実": 1959,
      "审": 1960,
      "客": 1961,
      "宣": 1962,
      "室": 1963,
      "害": 1964,
      "家": 1965,
      "容": 1966,
      "宽": 1967,
      "宿": 1968,
      "寄": 1969,
      "密": 1970,
      "富": 1971,
      "寒": 1972,
      "寝": 1973,
      "察": 1974,
      "實": 1975,
      "寧": 1976,
      "寸": 1977,
      "对": 1978,
      "寻": 1979,
      "导": 1980,
      "対": 1981,
      "専": 1982,
      "射": 1983,
      "将": 1984,
      "將": 1985,
      "尊": 1986,
      "對": 1987,
      "小": 1988,
      "少": 1989,
      "尔": 1990,
      "尝": 1991,
      "尤": 1992,
      "就": 1993,
      "尺": 1994,
      "尽": 1995,
      "局": 1996,
      "层": 1997,
      "居": 1998,
      "屋": 1999,
      "屏": 2000,
      "展": 2001,
      "属": 2002,
      "層": 2003,
      "山": 2004,
      "岛": 2005,
      "岡": 2006,
      "岸": 2007,
      "島": 2008,
      "峻": 2009,
      "崍": 2010,
      "崎": 2011,
      "嵌": 2012,
      "嵐": 2013,
      "川": 2014,
      "州": 2015,
      "工": 2016,
      "左": 2017,
      "巨": 2018,
      "差": 2019,
      "己": 2020,
      "已": 2021,
      "巴": 2022,
      "巷": 2023,
      "巻": 2024,
      "市": 2025,
      "布": 2026,
      "师": 2027,
      "希": 2028,
      "帝": 2029,
      "带": 2030,
      "師": 2031,
      "席": 2032,
      "帮": 2033,
      "常": 2034,
      "幕": 2035,
      "幣": 2036,
      "平": 2037,
      "年": 2038,
      "并": 2039,
      "幹": 2040,
      "幼": 2041,
      "广": 2042,
      "庁": 2043,
      "広": 2044,
      "床": 2045,
      "序": 2046,
      "库": 2047,
      "应": 2048,
      "底": 2049,
      "店": 2050,
      "府": 2051,
      "庞": 2052,
      "度": 2053,
      "庭": 2054,
      "延": 2055,
      "建": 2056,
      "开": 2057,
      "弃": 2058,
      "式": 2059,
      "引": 2060,
      "弛": 2061,
      "张": 2062,
      "弱": 2063,
      "張": 2064,
      "強": 2065,
      "弹": 2066,
      "强": 2067,
      "彎": 2068,
      "归": 2069,
      "当": 2070,
      "录": 2071,
      "彙": 2072,
      "形": 2073,
      "彩": 2074,
      "影": 2075,
      "役": 2076,
      "彼": 2077,
      "往": 2078,
      "征": 2079,
      "径": 2080,
      "待": 2081,
      "很": 2082,
      "律": 2083,
      "後": 2084,
      "徒": 2085,
      "従": 2086,
      "得": 2087,
      "從": 2088,
      "循": 2089,
      "微": 2090,
      "徴": 2091,
      "德": 2092,
      "心": 2093,
      "必": 2094,
      "忌": 2095,
      "志": 2096,
      "忙": 2097,
      "応": 2098,
      "快": 2099,
      "念": 2100,
      "态": 2101,
      "怎": 2102,
      "怖": 2103,
      "思": 2104,
      "急": 2105,
      "性": 2106,
      "总": 2107,
      "恐": 2108,
      "息": 2109,
      "悉": 2110,
      "患": 2111,
      "您": 2112,
      "悪": 2113,
      "情": 2114,
      "惑": 2115,
      "惨": 2116,
      "想": 2117,
      "意": 2118,
      "愛": 2119,
      "感": 2120,
      "態": 2121,
      "慣": 2122,
      "憧": 2123,
      "憬": 2124,
      "懂": 2125,
      "應": 2126,
      "懸": 2127,
      "戏": 2128,
      "成": 2129,
      "我": 2130,
      "戒": 2131,
      "或": 2132,
      "战": 2133,
      "戦": 2134,
      "截": 2135,
      "戯": 2136,
      "户": 2137,
      "戸": 2138,
      "戻": 2139,
      "所": 2140,
      "手": 2141,
      "打": 2142,
      "払": 2143,
      "扣": 2144,
      "执": 2145,
      "扩": 2146,
      "扫": 2147,
      "批": 2148,
      "找": 2149,
      "技": 2150,
      "把": 2151,
      "抓": 2152,
      "投": 2153,
      "抗": 2154,
      "护": 2155,
      "报": 2156,
      "抵": 2157,
      "押": 2158,
      "抽": 2159,
      "担": 2160,
      "拆": 2161,
      "拉": 2162,
      "拍": 2163,
      "拓": 2164,
      "招": 2165,
      "择": 2166,
      "括": 2167,
      "拿": 2168,
      "持": 2169,
      "挂": 2170,
      "指": 2171,
      "按": 2172,
      "挖": 2173,
      "挙": 2174,
      "振": 2175,
      "挺": 2176,
      "捉": 2177,
      "捐": 2178,
      "捕": 2179,
      "捜": 2180,
      "换": 2181,
      "捨": 2182,
      "据": 2183,
      "捷": 2184,
      "授": 2185,
      "掉": 2186,
      "排": 2187,
      "掘": 2188,
      "探": 2189,
      "接": 2190,
      "控": 2191,
      "推": 2192,
      "描": 2193,
      "提": 2194,
      "援": 2195,
      "搭": 2196,
      "摄": 2197,
      "摆": 2198,
      "摊": 2199,
      "摘": 2200,
      "撃": 2201,
      "撑": 2202,
      "撞": 2203,
      "撤": 2204,
      "撮": 2205,
      "撰": 2206,
      "撲": 2207,
      "操": 2208,
      "據": 2209,
      "支": 2210,
      "收": 2211,
      "改": 2212,
      "攻": 2213,
      "放": 2214,
      "政": 2215,
      "故": 2216,
      "效": 2217,
      "敗": 2218,
      "教": 2219,
      "数": 2220,
      "敲": 2221,
      "整": 2222,
      "數": 2223,
      "文": 2224,
      "斗": 2225,
      "料": 2226,
      "断": 2227,
      "斯": 2228,
      "新": 2229,
      "方": 2230,
      "於": 2231,
      "施": 2232,
      "旅": 2233,
      "族": 2234,
      "无": 2235,
      "日": 2236,
      "旦": 2237,
      "旨": 2238,
      "早": 2239,
      "旬": 2240,
      "时": 2241,
      "昆": 2242,
      "明": 2243,
      "易": 2244,
      "昔": 2245,
      "星": 2246,
      "映": 2247,
      "春": 2248,
      "昨": 2249,
      "是": 2250,
      "显": 2251,
      "時": 2252,
      "普": 2253,
      "景": 2254,
      "晴": 2255,
      "智": 2256,
      "暑": 2257,
      "暨": 2258,
      "暴": 2259,
      "曜": 2260,
      "曲": 2261,
      "更": 2262,
      "書": 2263,
      "替": 2264,
      "最": 2265,
      "會": 2266,
      "月": 2267,
      "有": 2268,
      "朋": 2269,
      "服": 2270,
      "望": 2271,
      "朝": 2272,
      "期": 2273,
      "木": 2274,
      "未": 2275,
      "末": 2276,
      "本": 2277,
      "术": 2278,
      "机": 2279,
      "杂": 2280,
      "权": 2281,
      "李": 2282,
      "材": 2283,
      "村": 2284,
      "条": 2285,
      "来": 2286,
      "東": 2287,
      "松": 2288,
      "板": 2289,
      "极": 2290,
      "构": 2291,
      "析": 2292,
      "林": 2293,
      "果": 2294,
      "枢": 2295,
      "枪": 2296,
      "架": 2297,
      "柄": 2298,
      "柏": 2299,
      "某": 2300,
      "查": 2301,
      "査": 2302,
      "标": 2303,
      "栏": 2304,
      "树": 2305,
      "校": 2306,
      "株": 2307,
      "样": 2308,
      "核": 2309,
      "根": 2310,
      "格": 2311,
      "框": 2312,
      "案": 2313,
      "桌": 2314,
      "梅": 2315,
      "條": 2316,
      "梦": 2317,
      "械": 2318,
      "梵": 2319,
      "检": 2320,
      "棋": 2321,
      "業": 2322,
      "極": 2323,
      "楽": 2324,
      "概": 2325,
      "構": 2326,
      "様": 2327,
      "標": 2328,
      "模": 2329,
      "樣": 2330,
      "権": 2331,
      "横": 2332,
      "樹": 2333,
      "機": 2334,
      "檰": 2335,
      "欠": 2336,
      "次": 2337,
      "欧": 2338,
      "欲": 2339,
      "款": 2340,
      "歌": 2341,
      "歡": 2342,
      "止": 2343,
      "正": 2344,
      "此": 2345,
      "步": 2346,
      "歳": 2347,
      "歴": 2348,
      "歷": 2349,
      "死": 2350,
      "残": 2351,
      "段": 2352,
      "殺": 2353,
      "殻": 2354,
      "毎": 2355,
      "每": 2356,
      "比": 2357,
      "毕": 2358,
      "毫": 2359,
      "民": 2360,
      "气": 2361,
      "気": 2362,
      "氣": 2363,
      "水": 2364,
      "求": 2365,
      "汇": 2366,
      "汉": 2367,
      "江": 2368,
      "池": 2369,
      "決": 2370,
      "沒": 2371,
      "沟": 2372,
      "没": 2373,
      "治": 2374,
      "泊": 2375,
      "法": 2376,
      "泛": 2377,
      "泡": 2378,
      "波": 2379,
      "注": 2380,
      "洋": 2381,
      "洞": 2382,
      "洪": 2383,
      "洲": 2384,
      "活": 2385,
      "流": 2386,
      "测": 2387,
      "济": 2388,
      "浏": 2389,
      "浗": 2390,
      "浣": 2391,
      "浮": 2392,
      "海": 2393,
      "消": 2394,
      "涓": 2395,
      "润": 2396,
      "涯": 2397,
      "淡": 2398,
      "淫": 2399,
      "深": 2400,
      "混": 2401,
      "済": 2402,
      "渋": 2403,
      "渐": 2404,
      "減": 2405,
      "渡": 2406,
      "港": 2407,
      "游": 2408,
      "湖": 2409,
      "湾": 2410,
      "湿": 2411,
      "源": 2412,
      "準": 2413,
      "滑": 2414,
      "滚": 2415,
      "满": 2416,
      "漁": 2417,
      "漏": 2418,
      "演": 2419,
      "漠": 2420,
      "漫": 2421,
      "潜": 2422,
      "潟": 2423,
      "澳": 2424,
      "澶": 2425,
      "激": 2426,
      "濃": 2427,
      "瀬": 2428,
      "灵": 2429,
      "災": 2430,
      "炎": 2431,
      "炭": 2432,
      "炸": 2433,
      "点": 2434,
      "為": 2435,
      "炼": 2436,
      "烈": 2437,
      "烦": 2438,
      "烧": 2439,
      "热": 2440,
      "無": 2441,
      "然": 2442,
      "照": 2443,
      "熟": 2444,
      "熱": 2445,
      "燒": 2446,
      "爆": 2447,
      "爱": 2448,
      "片": 2449,
      "版": 2450,
      "牌": 2451,
      "物": 2452,
      "特": 2453,
      "犯": 2454,
      "状": 2455,
      "犹": 2456,
      "独": 2457,
      "狭": 2458,
      "猜": 2459,
      "猫": 2460,
      "玄": 2461,
      "率": 2462,
      "王": 2463,
      "玩": 2464,
      "环": 2465,
      "现": 2466,
      "現": 2467,
      "球": 2468,
      "理": 2469,
      "琴": 2470,
      "環": 2471,
      "甘": 2472,
      "甚": 2473,
      "生": 2474,
      "產": 2475,
      "産": 2476,
      "用": 2477,
      "田": 2478,
      "由": 2479,
      "甲": 2480,
      "申": 2481,
      "电": 2482,
      "男": 2483,
      "町": 2484,
      "画": 2485,
      "界": 2486,
      "留": 2487,
      "略": 2488,
      "異": 2489,
      "疑": 2490,
      "疫": 2491,
      "病": 2492,
      "症": 2493,
      "痛": 2494,
      "痴": 2495,
      "療": 2496,
      "発": 2497,
      "登": 2498,
      "發": 2499,
      "白": 2500,
      "的": 2501,
      "盈": 2502,
      "益": 2503,
      "监": 2504,
      "盖": 2505,
      "盘": 2506,
      "盛": 2507,
      "盟": 2508,
      "盤": 2509,
      "目": 2510,
      "直": 2511,
      "相": 2512,
      "省": 2513,
      "眉": 2514,
      "看": 2515,
      "県": 2516,
      "真": 2517,
      "眠": 2518,
      "着": 2519,
      "睫": 2520,
      "知": 2521,
      "矩": 2522,
      "短": 2523,
      "码": 2524,
      "砂": 2525,
      "研": 2526,
      "破": 2527,
      "础": 2528,
      "硬": 2529,
      "确": 2530,
      "碍": 2531,
      "碰": 2532,
      "碼": 2533,
      "磁": 2534,
      "示": 2535,
      "社": 2536,
      "祈": 2537,
      "祝": 2538,
      "神": 2539,
      "票": 2540,
      "禁": 2541,
      "禎": 2542,
      "福": 2543,
      "私": 2544,
      "秋": 2545,
      "种": 2546,
      "科": 2547,
      "秒": 2548,
      "秘": 2549,
      "租": 2550,
      "积": 2551,
      "称": 2552,
      "移": 2553,
      "程": 2554,
      "税": 2555,
      "種": 2556,
      "稳": 2557,
      "稿": 2558,
      "積": 2559,
      "究": 2560,
      "空": 2561,
      "突": 2562,
      "窍": 2563,
      "窓": 2564,
      "窗": 2565,
      "立": 2566,
      "站": 2567,
      "竞": 2568,
      "章": 2569,
      "竭": 2570,
      "端": 2571,
      "笑": 2572,
      "笔": 2573,
      "符": 2574,
      "第": 2575,
      "筆": 2576,
      "等": 2577,
      "答": 2578,
      "策": 2579,
      "筹": 2580,
      "签": 2581,
      "简": 2582,
      "算": 2583,
      "管": 2584,
      "箱": 2585,
      "節": 2586,
      "範": 2587,
      "篇": 2588,
      "築": 2589,
      "籍": 2590,
      "米": 2591,
      "类": 2592,
      "粗": 2593,
      "精": 2594,
      "系": 2595,
      "約": 2596,
      "純": 2597,
      "紙": 2598,
      "級": 2599,
      "素": 2600,
      "索": 2601,
      "紧": 2602,
      "累": 2603,
      "細": 2604,
      "紹": 2605,
      "終": 2606,
      "組": 2607,
      "経": 2608,
      "結": 2609,
      "給": 2610,
      "絫": 2611,
      "統": 2612,
      "經": 2613,
      "続": 2614,
      "綱": 2615,
      "網": 2616,
      "緊": 2617,
      "総": 2618,
      "緒": 2619,
      "線": 2620,
      "編": 2621,
      "練": 2622,
      "縦": 2623,
      "縮": 2624,
      "總": 2625,
      "繁": 2626,
      "續": 2627,
      "红": 2628,
      "约": 2629,
      "级": 2630,
      "纲": 2631,
      "纳": 2632,
      "纵": 2633,
      "线": 2634,
      "练": 2635,
      "组": 2636,
      "细": 2637,
      "织": 2638,
      "绍": 2639,
      "经": 2640,
      "结": 2641,
      "绘": 2642,
      "给": 2643,
      "统": 2644,
      "绠": 2645,
      "继": 2646,
      "绩": 2647,
      "续": 2648,
      "维": 2649,
      "综": 2650,
      "绿": 2651,
      "缓": 2652,
      "编": 2653,
      "缠": 2654,
      "缩": 2655,
      "缺": 2656,
      "网": 2657,
      "置": 2658,
      "署": 2659,
      "美": 2660,
      "群": 2661,
      "義": 2662,
      "羽": 2663,
      "習": 2664,
      "翻": 2665,
      "翼": 2666,
      "老": 2667,
      "考": 2668,
      "者": 2669,
      "而": 2670,
      "耐": 2671,
      "耗": 2672,
      "职": 2673,
      "联": 2674,
      "聚": 2675,
      "聞": 2676,
      "聯": 2677,
      "職": 2678,
      "肉": 2679,
      "肋": 2680,
      "股": 2681,
      "肯": 2682,
      "育": 2683,
      "肽": 2684,
      "胃": 2685,
      "背": 2686,
      "胜": 2687,
      "胞": 2688,
      "能": 2689,
      "脅": 2690,
      "脏": 2691,
      "脑": 2692,
      "腑": 2693,
      "腿": 2694,
      "膜": 2695,
      "自": 2696,
      "至": 2697,
      "致": 2698,
      "與": 2699,
      "興": 2700,
      "舌": 2701,
      "舐": 2702,
      "舞": 2703,
      "般": 2704,
      "舱": 2705,
      "艦": 2706,
      "良": 2707,
      "色": 2708,
      "艺": 2709,
      "节": 2710,
      "芭": 2711,
      "花": 2712,
      "芸": 2713,
      "若": 2714,
      "苦": 2715,
      "英": 2716,
      "苹": 2717,
      "范": 2718,
      "草": 2719,
      "荐": 2720,
      "荷": 2721,
      "获": 2722,
      "菊": 2723,
      "菌": 2724,
      "菜": 2725,
      "菱": 2726,
      "营": 2727,
      "落": 2728,
      "葉": 2729,
      "著": 2730,
      "蔬": 2731,
      "蕾": 2732,
      "薄": 2733,
      "薬": 2734,
      "藤": 2735,
      "藥": 2736,
      "虑": 2737,
      "處": 2738,
      "號": 2739,
      "蚁": 2740,
      "蚂": 2741,
      "蛇": 2742,
      "蛋": 2743,
      "融": 2744,
      "血": 2745,
      "行": 2746,
      "衍": 2747,
      "術": 2748,
      "衛": 2749,
      "补": 2750,
      "表": 2751,
      "袋": 2752,
      "被": 2753,
      "装": 2754,
      "補": 2755,
      "複": 2756,
      "西": 2757,
      "要": 2758,
      "覆": 2759,
      "見": 2760,
      "規": 2761,
      "視": 2762,
      "覚": 2763,
      "覧": 2764,
      "観": 2765,
      "见": 2766,
      "观": 2767,
      "规": 2768,
      "视": 2769,
      "览": 2770,
      "觉": 2771,
      "角": 2772,
      "解": 2773,
      "言": 2774,
      "計": 2775,
      "記": 2776,
      "設": 2777,
      "許": 2778,
      "試": 2779,
      "話": 2780,
      "該": 2781,
      "認": 2782,
      "語": 2783,
      "誤": 2784,
      "説": 2785,
      "読": 2786,
      "課": 2787,
      "調": 2788,
      "請": 2789,
      "論": 2790,
      "諦": 2791,
      "諸": 2792,
      "講": 2793,
      "謝": 2794,
      "證": 2795,
      "識": 2796,
      "警": 2797,
      "计": 2798,
      "订": 2799,
      "认": 2800,
      "讨": 2801,
      "让": 2802,
      "训": 2803,
      "议": 2804,
      "讯": 2805,
      "记": 2806,
      "讲": 2807,
      "论": 2808,
      "设": 2809,
      "访": 2810,
      "证": 2811,
      "评": 2812,
      "识": 2813,
      "诉": 2814,
      "译": 2815,
      "诒": 2816,
      "试": 2817,
      "诚": 2818,
      "话": 2819,
      "询": 2820,
      "该": 2821,
      "详": 2822,
      "语": 2823,
      "误": 2824,
      "说": 2825,
      "请": 2826,
      "读": 2827,
      "课": 2828,
      "谁": 2829,
      "调": 2830,
      "谈": 2831,
      "谐": 2832,
      "谢": 2833,
      "谷": 2834,
      "象": 2835,
      "豪": 2836,
      "豫": 2837,
      "負": 2838,
      "貪": 2839,
      "買": 2840,
      "貸": 2841,
      "費": 2842,
      "賃": 2843,
      "資": 2844,
      "賞": 2845,
      "質": 2846,
      "贈": 2847,
      "贝": 2848,
      "负": 2849,
      "财": 2850,
      "责": 2851,
      "败": 2852,
      "账": 2853,
      "货": 2854,
      "质": 2855,
      "贪": 2856,
      "贫": 2857,
      "购": 2858,
      "贷": 2859,
      "贸": 2860,
      "费": 2861,
      "贺": 2862,
      "赁": 2863,
      "资": 2864,
      "赋": 2865,
      "赌": 2866,
      "赖": 2867,
      "赛": 2868,
      "赠": 2869,
      "赢": 2870,
      "赤": 2871,
      "走": 2872,
      "起": 2873,
      "超": 2874,
      "越": 2875,
      "趙": 2876,
      "趣": 2877,
      "足": 2878,
      "跌": 2879,
      "跟": 2880,
      "跨": 2881,
      "路": 2882,
      "跳": 2883,
      "踊": 2884,
      "身": 2885,
      "躲": 2886,
      "車": 2887,
      "軌": 2888,
      "軍": 2889,
      "転": 2890,
      "載": 2891,
      "輛": 2892,
      "輸": 2893,
      "轉": 2894,
      "转": 2895,
      "轮": 2896,
      "软": 2897,
      "轴": 2898,
      "载": 2899,
      "较": 2900,
      "辅": 2901,
      "辐": 2902,
      "输": 2903,
      "辨": 2904,
      "農": 2905,
      "边": 2906,
      "込": 2907,
      "达": 2908,
      "过": 2909,
      "迎": 2910,
      "运": 2911,
      "近": 2912,
      "返": 2913,
      "还": 2914,
      "这": 2915,
      "进": 2916,
      "远": 2917,
      "连": 2918,
      "迟": 2919,
      "迫": 2920,
      "迭": 2921,
      "述": 2922,
      "迷": 2923,
      "退": 2924,
      "送": 2925,
      "适": 2926,
      "逃": 2927,
      "选": 2928,
      "逊": 2929,
      "递": 2930,
      "途": 2931,
      "這": 2932,
      "通": 2933,
      "逛": 2934,
      "速": 2935,
      "造": 2936,
      "連": 2937,
      "逮": 2938,
      "週": 2939,
      "進": 2940,
      "遊": 2941,
      "運": 2942,
      "遍": 2943,
      "過": 2944,
      "道": 2945,
      "達": 2946,
      "違": 2947,
      "遗": 2948,
      "選": 2949,
      "遺": 2950,
      "避": 2951,
      "那": 2952,
      "邮": 2953,
      "部": 2954,
      "郭": 2955,
      "都": 2956,
      "配": 2957,
      "酒": 2958,
      "酔": 2959,
      "酶": 2960,
      "酸": 2961,
      "醫": 2962,
      "采": 2963,
      "釈": 2964,
      "释": 2965,
      "釋": 2966,
      "里": 2967,
      "重": 2968,
      "野": 2969,
      "量": 2970,
      "金": 2971,
      "釧": 2972,
      "鉄": 2973,
      "鉴": 2974,
      "錢": 2975,
      "錯": 2976,
      "鍵": 2977,
      "鎖": 2978,
      "鏂": 2979,
      "鑫": 2980,
      "针": 2981,
      "钟": 2982,
      "钮": 2983,
      "银": 2984,
      "铺": 2985,
      "链": 2986,
      "销": 2987,
      "锁": 2988,
      "错": 2989,
      "键": 2990,
      "锻": 2991,
      "镜": 2992,
      "長": 2993,
      "长": 2994,
      "門": 2995,
      "閉": 2996,
      "開": 2997,
      "間": 2998,
      "関": 2999,
      "闘": 3000,
      "關": 3001,
      "门": 3002,
      "闭": 3003,
      "问": 3004,
      "间": 3005,
      "闻": 3006,
      "队": 3007,
      "阪": 3008,
      "防": 3009,
      "阳": 3010,
      "阵": 3011,
      "阶": 3012,
      "阻": 3013,
      "附": 3014,
      "际": 3015,
      "降": 3016,
      "限": 3017,
      "院": 3018,
      "陣": 3019,
      "除": 3020,
      "险": 3021,
      "険": 3022,
      "陽": 3023,
      "階": 3024,
      "随": 3025,
      "際": 3026,
      "障": 3027,
      "隠": 3028,
      "雄": 3029,
      "雅": 3030,
      "集": 3031,
      "雇": 3032,
      "雌": 3033,
      "雑": 3034,
      "離": 3035,
      "難": 3036,
      "雨": 3037,
      "零": 3038,
      "雷": 3039,
      "電": 3040,
      "需": 3041,
      "震": 3042,
      "霧": 3043,
      "霸": 3044,
      "静": 3045,
      "非": 3046,
      "面": 3047,
      "革": 3048,
      "韓": 3049,
      "音": 3050,
      "響": 3051,
      "頁": 3052,
      "項": 3053,
      "預": 3054,
      "頑": 3055,
      "領": 3056,
      "頭": 3057,
      "題": 3058,
      "願": 3059,
      "類": 3060,
      "顯": 3061,
      "页": 3062,
      "项": 3063,
      "顺": 3064,
      "须": 3065,
      "预": 3066,
      "领": 3067,
      "频": 3068,
      "颗": 3069,
      "题": 3070,
      "颜": 3071,
      "额": 3072,
      "风": 3073,
      "飛": 3074,
      "飞": 3075,
      "食": 3076,
      "飢": 3077,
      "飲": 3078,
      "餐": 3079,
      "館": 3080,
      "馆": 3081,
      "首": 3082,
      "駅": 3083,
      "駕": 3084,
      "駛": 3085,
      "騒": 3086,
      "験": 3087,
      "马": 3088,
      "驰": 3089,
      "驱": 3090,
      "驶": 3091,
      "驾": 3092,
      "验": 3093,
      "骨": 3094,
      "高": 3095,
      "髪": 3096,
      "鬼": 3097,
      "魅": 3098,
      "魔": 3099,
      "鯨": 3100,
      "鲁": 3101,
      "鲜": 3102,
      "鳥": 3103,
      "鸟": 3104,
      "鸡": 3105,
      "鸣": 3106,
      "麻": 3107,
      "麼": 3108,
      "黑": 3109,
      "黒": 3110,
      "默": 3111,
      "點": 3112,
      "鼓": 3113,
      "龄": 3114,
      "가": 3115,
      "각": 3116,
      "간": 3117,
      "갈": 3118,
      "갉": 3119,
      "감": 3120,
      "값": 3121,
      "갓": 3122,
      "갔": 3123,
      "강": 3124,
      "갖": 3125,
      "같": 3126,
      "개": 3127,
      "객": 3128,
      "갯": 3129,
      "거": 3130,
      "건": 3131,
      "걸": 3132,
      "검": 3133,
      "겁": 3134,
      "것": 3135,
      "게": 3136,
      "겟": 3137,
      "겠": 3138,
      "겨": 3139,
      "격": 3140,
      "견": 3141,
      "결": 3142,
      "겹": 3143,
      "겼": 3144,
      "경": 3145,
      "곁": 3146,
      "계": 3147,
      "고": 3148,
      "골": 3149,
      "곳": 3150,
      "공": 3151,
      "과": 3152,
      "관": 3153,
      "교": 3154,
      "구": 3155,
      "국": 3156,
      "군": 3157,
      "굳": 3158,
      "굴": 3159,
      "굿": 3160,
      "궁": 3161,
      "권": 3162,
      "귓": 3163,
      "규": 3164,
      "그": 3165,
      "극": 3166,
      "근": 3167,
      "글": 3168,
      "금": 3169,
      "급": 3170,
      "기": 3171,
      "긴": 3172,
      "길": 3173,
      "김": 3174,
      "까": 3175,
      "깐": 3176,
      "깨": 3177,
      "꺼": 3178,
      "꺾": 3179,
      "껍": 3180,
      "껴": 3181,
      "꾫": 3182,
      "꾸": 3183,
      "꿀": 3184,
      "꿈": 3185,
      "끄": 3186,
      "끈": 3187,
      "끌": 3188,
      "끔": 3189,
      "끝": 3190,
      "끼": 3191,
      "낀": 3192,
      "낄": 3193,
      "낌": 3194,
      "나": 3195,
      "난": 3196,
      "날": 3197,
      "남": 3198,
      "납": 3199,
      "났": 3200,
      "낮": 3201,
      "내": 3202,
      "낸": 3203,
      "낼": 3204,
      "냄": 3205,
      "냈": 3206,
      "냉": 3207,
      "냐": 3208,
      "냥": 3209,
      "너": 3210,
      "널": 3211,
      "넘": 3212,
      "넣": 3213,
      "네": 3214,
      "년": 3215,
      "념": 3216,
      "녕": 3217,
      "노": 3218,
      "놀": 3219,
      "놈": 3220,
      "농": 3221,
      "높": 3222,
      "놓": 3223,
      "뇌": 3224,
      "누": 3225,
      "눈": 3226,
      "뉴": 3227,
      "느": 3228,
      "는": 3229,
      "늘": 3230,
      "능": 3231,
      "니": 3232,
      "닌": 3233,
      "닐": 3234,
      "다": 3235,
      "단": 3236,
      "닫": 3237,
      "달": 3238,
      "담": 3239,
      "답": 3240,
      "당": 3241,
      "대": 3242,
      "더": 3243,
      "덕": 3244,
      "던": 3245,
      "덜": 3246,
      "덤": 3247,
      "덮": 3248,
      "데": 3249,
      "뎌": 3250,
      "돃": 3251,
      "도": 3252,
      "독": 3253,
      "돌": 3254,
      "동": 3255,
      "돼": 3256,
      "되": 3257,
      "된": 3258,
      "될": 3259,
      "됨": 3260,
      "두": 3261,
      "둘": 3262,
      "뒤": 3263,
      "뒷": 3264,
      "드": 3265,
      "득": 3266,
      "든": 3267,
      "듣": 3268,
      "들": 3269,
      "듯": 3270,
      "등": 3271,
      "디": 3272,
      "딜": 3273,
      "딪": 3274,
      "따": 3275,
      "딱": 3276,
      "때": 3277,
      "떠": 3278,
      "떤": 3279,
      "떨": 3280,
      "떻": 3281,
      "또": 3282,
      "뚫": 3283,
      "뛰": 3284,
      "뜨": 3285,
      "뜻": 3286,
      "라": 3287,
      "락": 3288,
      "란": 3289,
      "람": 3290,
      "랐": 3291,
      "랑": 3292,
      "래": 3293,
      "랙": 3294,
      "랜": 3295,
      "랬": 3296,
      "량": 3297,
      "러": 3298,
      "런": 3299,
      "럴": 3300,
      "럼": 3301,
      "럽": 3302,
      "럿": 3303,
      "렀": 3304,
      "렁": 3305,
      "렇": 3306,
      "레": 3307,
      "렉": 3308,
      "렛": 3309,
      "려": 3310,
      "력": 3311,
      "련": 3312,
      "렬": 3313,
      "렴": 3314,
      "렸": 3315,
      "령": 3316,
      "례": 3317,
      "로": 3318,
      "록": 3319,
      "론": 3320,
      "롤": 3321,
      "롭": 3322,
      "롯": 3323,
      "료": 3324,
      "루": 3325,
      "류": 3326,
      "률": 3327,
      "르": 3328,
      "른": 3329,
      "를": 3330,
      "름": 3331,
      "리": 3332,
      "릭": 3333,
      "린": 3334,
      "릴": 3335,
      "림": 3336,
      "립": 3337,
      "마": 3338,
      "막": 3339,
      "만": 3340,
      "많": 3341,
      "말": 3342,
      "맙": 3343,
      "맛": 3344,
      "망": 3345,
      "맞": 3346,
      "맡": 3347,
      "매": 3348,
      "맥": 3349,
      "맨": 3350,
      "맹": 3351,
      "맺": 3352,
      "머": 3353,
      "먹": 3354,
      "먼": 3355,
      "멀": 3356,
      "멍": 3357,
      "메": 3358,
      "멜": 3359,
      "며": 3360,
      "면": 3361,
      "멸": 3362,
      "명": 3363,
      "몇": 3364,
      "모": 3365,
      "목": 3366,
      "몬": 3367,
      "몰": 3368,
      "몸": 3369,
      "몹": 3370,
      "못": 3371,
      "묘": 3372,
      "무": 3373,
      "묵": 3374,
      "문": 3375,
      "물": 3376,
      "뭐": 3377,
      "뮌": 3378,
      "므": 3379,
      "미": 3380,
      "민": 3381,
      "믿": 3382,
      "밀": 3383,
      "밍": 3384,
      "및": 3385,
      "바": 3386,
      "박": 3387,
      "밖": 3388,
      "반": 3389,
      "받": 3390,
      "발": 3391,
      "방": 3392,
      "배": 3393,
      "백": 3394,
      "버": 3395,
      "번": 3396,
      "벌": 3397,
      "범": 3398,
      "벗": 3399,
      "베": 3400,
      "벼": 3401,
      "벽": 3402,
      "변": 3403,
      "별": 3404,
      "볍": 3405,
      "보": 3406,
      "복": 3407,
      "본": 3408,
      "볼": 3409,
      "봇": 3410,
      "봉": 3411,
      "봐": 3412,
      "봤": 3413,
      "부": 3414,
      "북": 3415,
      "분": 3416,
      "불": 3417,
      "붙": 3418,
      "브": 3419,
      "블": 3420,
      "비": 3421,
      "빈": 3422,
      "빗": 3423,
      "빛": 3424,
      "빠": 3425,
      "빨": 3426,
      "빼": 3427,
      "뻗": 3428,
      "뿌": 3429,
      "뿐": 3430,
      "사": 3431,
      "산": 3432,
      "살": 3433,
      "삵": 3434,
      "삶": 3435,
      "삼": 3436,
      "상": 3437,
      "새": 3438,
      "색": 3439,
      "생": 3440,
      "샷": 3441,
      "서": 3442,
      "석": 3443,
      "선": 3444,
      "설": 3445,
      "섬": 3446,
      "섰": 3447,
      "성": 3448,
      "세": 3449,
      "센": 3450,
      "셀": 3451,
      "셈": 3452,
      "션": 3453,
      "셨": 3454,
      "소": 3455,
      "속": 3456,
      "손": 3457,
      "쇄": 3458,
      "쇼": 3459,
      "수": 3460,
      "숙": 3461,
      "순": 3462,
      "술": 3463,
      "숨": 3464,
      "쉬": 3465,
      "쉽": 3466,
      "슈": 3467,
      "스": 3468,
      "슬": 3469,
      "슴": 3470,
      "습": 3471,
      "슷": 3472,
      "승": 3473,
      "시": 3474,
      "식": 3475,
      "신": 3476,
      "실": 3477,
      "심": 3478,
      "싶": 3479,
      "싼": 3480,
      "써": 3481,
      "썰": 3482,
      "쐐": 3483,
      "쓰": 3484,
      "쓱": 3485,
      "아": 3486,
      "악": 3487,
      "안": 3488,
      "않": 3489,
      "알": 3490,
      "암": 3491,
      "압": 3492,
      "앗": 3493,
      "았": 3494,
      "앙": 3495,
      "앞": 3496,
      "애": 3497,
      "앨": 3498,
      "야": 3499,
      "약": 3500,
      "양": 3501,
      "얘": 3502,
      "어": 3503,
      "억": 3504,
      "언": 3505,
      "얹": 3506,
      "얻": 3507,
      "얼": 3508,
      "엄": 3509,
      "업": 3510,
      "없": 3511,
      "엇": 3512,
      "었": 3513,
      "에": 3514,
      "여": 3515,
      "역": 3516,
      "연": 3517,
      "열": 3518,
      "였": 3519,
      "영": 3520,
      "옆": 3521,
      "예": 3522,
      "옛": 3523,
      "오": 3524,
      "온": 3525,
      "올": 3526,
      "옮": 3527,
      "와": 3528,
      "완": 3529,
      "왔": 3530,
      "왜": 3531,
      "왯": 3532,
      "외": 3533,
      "요": 3534,
      "욕": 3535,
      "용": 3536,
      "우": 3537,
      "운": 3538,
      "울": 3539,
      "움": 3540,
      "웃": 3541,
      "워": 3542,
      "원": 3543,
      "월": 3544,
      "웠": 3545,
      "위": 3546,
      "유": 3547,
      "육": 3548,
      "윤": 3549,
      "으": 3550,
      "은": 3551,
      "을": 3552,
      "음": 3553,
      "응": 3554,
      "의": 3555,
      "이": 3556,
      "익": 3557,
      "인": 3558,
      "일": 3559,
      "읽": 3560,
      "임": 3561,
      "입": 3562,
      "있": 3563,
      "잉": 3564,
      "잊": 3565,
      "자": 3566,
      "작": 3567,
      "잔": 3568,
      "잖": 3569,
      "잘": 3570,
      "잠": 3571,
      "잡": 3572,
      "장": 3573,
      "재": 3574,
      "쟁": 3575,
      "저": 3576,
      "적": 3577,
      "전": 3578,
      "절": 3579,
      "점": 3580,
      "접": 3581,
      "정": 3582,
      "제": 3583,
      "젠": 3584,
      "져": 3585,
      "졌": 3586,
      "조": 3587,
      "족": 3588,
      "존": 3589,
      "종": 3590,
      "좋": 3591,
      "좌": 3592,
      "주": 3593,
      "죽": 3594,
      "준": 3595,
      "줄": 3596,
      "줍": 3597,
      "중": 3598,
      "줘": 3599,
      "즈": 3600,
      "즉": 3601,
      "즌": 3602,
      "즘": 3603,
      "증": 3604,
      "지": 3605,
      "직": 3606,
      "진": 3607,
      "질": 3608,
      "짐": 3609,
      "집": 3610,
      "짓": 3611,
      "징": 3612,
      "짝": 3613,
      "쩍": 3614,
      "쭈": 3615,
      "쯤": 3616,
      "차": 3617,
      "착": 3618,
      "찬": 3619,
      "찰": 3620,
      "참": 3621,
      "창": 3622,
      "찾": 3623,
      "채": 3624,
      "책": 3625,
      "처": 3626,
      "천": 3627,
      "철": 3628,
      "첫": 3629,
      "첬": 3630,
      "청": 3631,
      "체": 3632,
      "쳐": 3633,
      "초": 3634,
      "촉": 3635,
      "촛": 3636,
      "최": 3637,
      "쵲": 3638,
      "추": 3639,
      "축": 3640,
      "춘": 3641,
      "출": 3642,
      "충": 3643,
      "측": 3644,
      "치": 3645,
      "친": 3646,
      "칠": 3647,
      "카": 3648,
      "커": 3649,
      "컨": 3650,
      "컴": 3651,
      "켈": 3652,
      "켜": 3653,
      "켰": 3654,
      "코": 3655,
      "쿠": 3656,
      "퀄": 3657,
      "퀼": 3658,
      "크": 3659,
      "큰": 3660,
      "클": 3661,
      "큼": 3662,
      "키": 3663,
      "킬": 3664,
      "타": 3665,
      "탄": 3666,
      "탈": 3667,
      "탓": 3668,
      "탕": 3669,
      "태": 3670,
      "택": 3671,
      "터": 3672,
      "털": 3673,
      "텅": 3674,
      "테": 3675,
      "텔": 3676,
      "템": 3677,
      "텝": 3678,
      "토": 3679,
      "통": 3680,
      "퇴": 3681,
      "투": 3682,
      "툭": 3683,
      "튀": 3684,
      "튜": 3685,
      "트": 3686,
      "특": 3687,
      "틀": 3688,
      "티": 3689,
      "팀": 3690,
      "팅": 3691,
      "파": 3692,
      "판": 3693,
      "패": 3694,
      "팽": 3695,
      "퍼": 3696,
      "페": 3697,
      "펠": 3698,
      "편": 3699,
      "평": 3700,
      "폐": 3701,
      "포": 3702,
      "폭": 3703,
      "폰": 3704,
      "폴": 3705,
      "폼": 3706,
      "표": 3707,
      "푸": 3708,
      "풀": 3709,
      "품": 3710,
      "풍": 3711,
      "퓨": 3712,
      "프": 3713,
      "플": 3714,
      "픔": 3715,
      "피": 3716,
      "픽": 3717,
      "핀": 3718,
      "필": 3719,
      "핑": 3720,
      "하": 3721,
      "학": 3722,
      "한": 3723,
      "할": 3724,
      "함": 3725,
      "합": 3726,
      "핫": 3727,
      "항": 3728,
      "해": 3729,
      "핵": 3730,
      "핸": 3731,
      "했": 3732,
      "행": 3733,
      "향": 3734,
      "허": 3735,
      "험": 3736,
      "헤": 3737,
      "현": 3738,
      "혐": 3739,
      "혔": 3740,
      "형": 3741,
      "호": 3742,
      "혹": 3743,
      "혼": 3744,
      "화": 3745,
      "확": 3746,
      "환": 3747,
      "활": 3748,
      "황": 3749,
      "회": 3750,
      "효": 3751,
      "후": 3752,
      "훈": 3753,
      "휘": 3754,
      "흐": 3755,
      "흔": 3756,
      "흘": 3757,
      "흙": 3758,
      "히": 3759,
      "힌": 3760,
      "힘": 3761,
      "": 3762,
      "": 3763,
      "": 3764,
      "": 3765,
      "": 3766,
      "": 3767,
      "": 3768,
      "": 3769,
      "": 3770,
      "": 3771,
      "": 3772,
      "": 3773,
      "": 3774,
      "": 3775,
      "": 3776,
      "": 3777,
      "": 3778,
      "": 3779,
      "": 3780,
      "": 3781,
      "": 3782,
      "": 3783,
      "虜": 3784,
      "ﬀ": 3785,
      "ﬁ": 3786,
      "ﬂ": 3787,
      "ﷺ": 3788,
      "️": 3789,
      "﻿": 3790,
      "！": 3791,
      "％": 3792,
      "＇": 3793,
      "（": 3794,
      "）": 3795,
      "＋": 3796,
      "，": 3797,
      "．": 3798,
      "０": 3799,
      "１": 3800,
      "２": 3801,
      "３": 3802,
      "４": 3803,
      "７": 3804,
      "８": 3805,
      "：": 3806,
      "；": 3807,
      "＜": 3808,
      "＞": 3809,
      "？": 3810,
      "Ｅ": 3811,
      "Ｉ": 3812,
      "Ｌ": 3813,
      "Ｘ": 3814,
      "＿": 3815,
      "～": 3816,
      "�": 3817,
      "𝑇": 3818,
      "𝑋": 3819,
      "𝑌": 3820,
      "𝑛": 3821,
      "𝗕": 3822,
      "𝗘": 3823,
      "𝗛": 3824,
      "𝗝": 3825,
      "𝗠": 3826,
      "𝗡": 3827,
      "𝗣": 3828,
      "𝗧": 3829,
      "𝗪": 3830,
      "𝗮": 3831,
      "𝗯": 3832,
      "𝗰": 3833,
      "𝗱": 3834,
      "𝗲": 3835,
      "𝗵": 3836,
      "𝗶": 3837,
      "𝗷": 3838,
      "𝗸": 3839,
      "𝗹": 3840,
      "𝗺": 3841,
      "𝗻": 3842,
      "𝗼": 3843,
      "𝗽": 3844,
      "𝗿": 3845,
      "𝘀": 3846,
      "𝘁": 3847,
      "𝘂": 3848,
      "𝘃": 3849,
      "𝘆": 3850,
      "𝛼": 3851,
      "🅰": 3852,
      "🅱": 3853,
      "🆔": 3854,
      "🆕": 3855,
      "🌅": 3856,
      "🌈": 3857,
      "🌌": 3858,
      "🌍": 3859,
      "🌐": 3860,
      "🌑": 3861,
      "🌕": 3862,
      "🌙": 3863,
      "🌞": 3864,
      "🌟": 3865,
      "🌮": 3866,
      "🌱": 3867,
      "🍔": 3868,
      "🍕": 3869,
      "🍦": 3870,
      "🍩": 3871,
      "🎈": 3872,
      "🎉": 3873,
      "🎒": 3874,
      "🎓": 3875,
      "🎥": 3876,
      "🎬": 3877,
      "🎭": 3878,
      "🎮": 3879,
      "🎯": 3880,
      "🏋": 3881,
      "🏻": 3882,
      "🐶": 3883,
      "🐾": 3884,
      "👂": 3885,
      "👇": 3886,
      "👉": 3887,
      "👋": 3888,
      "👍": 3889,
      "👎": 3890,
      "👑": 3891,
      "👤": 3892,
      "👨": 3893,
      "👫": 3894,
      "👾": 3895,
      "💡": 3896,
      "💥": 3897,
      "💧": 3898,
      "💬": 3899,
      "💰": 3900,
      "📃": 3901,
      "📅": 3902,
      "📆": 3903,
      "📈": 3904,
      "📊": 3905,
      "📘": 3906,
      "📚": 3907,
      "📢": 3908,
      "📲": 3909,
      "📺": 3910,
      "🔍": 3911,
      "🔒": 3912,
      "🔥": 3913,
      "🕵": 3914,
      "🕷": 3915,
      "🕸": 3916,
      "🗣": 3917,
      "🗺": 3918,
      "😂": 3919,
      "😄": 3920,
      "😆": 3921,
      "😎": 3922,
      "😔": 3923,
      "😡": 3924,
      "😢": 3925,
      "😦": 3926,
      "😭": 3927,
      "😳": 3928,
      "😻": 3929,
      "🙄": 3930,
      "🙏": 3931,
      "🚀": 3932,
      "🚨": 3933,
      "🛡": 3934,
      "🤌": 3935,
      "🤔": 3936,
      "🤝": 3937,
      "🤞": 3938,
      "🤣": 3939,
      "🤦": 3940,
      "🤩": 3941,
      "🤷": 3942,
      "🥨": 3943,
      "🥭": 3944,
      "🫦": 3945,
      "th": 3946,
      "in": 3947,
      "er": 3948,
      "an": 3949,
      "the": 3950,
      "on": 3951,
      "re": 3952,
      "at": 3953,
      "en": 3954,
      "es": 3955,
      "al": 3956,
      "is": 3957,
      "or": 3958,
      "of": 3959,
      "ti": 3960,
      "ing": 3961,
      "to": 3962,
      "ed": 3963,
      "and": 3964,
      "ar": 3965,
      "le": 3966,
      "as": 3967,
      "ou": 3968,
      "ac": 3969,
      "st": 3970,
      "it": 3971,
      "ro": 3972,
      "ic": 3973,
      "ent": 3974,
      "he": 3975,
      "se": 3976,
      "de": 3977,
      "co": 3978,
      "me": 3979,
      "ion": 3980,
      "\\(": 3981,
      "\\)": 3982,
      "ve": 3983,
      "tion": 3984,
      "for": 3985,
      "um": 3986,
      "il": 3987,
      "ow": 3988,
      "ter": 3989,
      "ch": 3990,
      "be": 3991,
      "un": 3992,
      "ri": 3993,
      "ly": 3994,
      "ts": 3995,
      "ation": 3996,
      "di": 3997,
      "ce": 3998,
      "con": 3999,
      "res": 4000,
      "ra": 4001,
      "ol": 4002,
      "qu": 4003,
      "te": 4004,
      "mp": 4005,
      "that": 4006,
      "ur": 4007,
      "ge": 4008,
      "wh": 4009,
      "ul": 4010,
      "ma": 4011,
      "ith": 4012,
      "The": 4013,
      "are": 4014,
      "ver": 4015,
      "ir": 4016,
      "ate": 4017,
      "po": 4018,
      "id": 4019,
      "lo": 4020,
      "pro": 4021,
      "us": 4022,
      "ct": 4023,
      "ad": 4024,
      "ut": 4025,
      "ach": 4026,
      "ig": 4027,
      "with": 4028,
      "pe": 4029,
      "mo": 4030,
      "ay": 4031,
      "ta": 4032,
      "ex": 4033,
      "per": 4034,
      "ber": 4035,
      "ne": 4036,
      "ere": 4037,
      "sh": 4038,
      "ist": 4039,
      "--": 4040,
      "00": 4041,
      "su": 4042,
      "num": 4043,
      "pl": 4044,
      "am": 4045,
      "ab": 4046,
      "number": 4047,
      "man": 4048,
      "si": 4049,
      "ld": 4050,
      "ction": 4051,
      "by": 4052,
      "ine": 4053,
      "all": 4054,
      "ke": 4055,
      "ment": 4056,
      "our": 4057,
      "no": 4058,
      "we": 4059,
      "li": 4060,
      "ess": 4061,
      "each": 4062,
      "ci": 4063,
      "ity": 4064,
      "oun": 4065,
      "ap": 4066,
      "so": 4067,
      "do": 4068,
      "ff": 4069,
      "tr": 4070,
      "ht": 4071,
      "ven": 4072,
      "her": 4073,
      "ind": 4074,
      "rom": 4075,
      "str": 4076,
      "pres": 4077,
      "im": 4078,
      "ha": 4079,
      "end": 4080,
      "from": 4081,
      "ould": 4082,
      "ers": 4083,
      "val": 4084,
      "fun": 4085,
      "ue": 4086,
      "tic": 4087,
      "bo": 4088,
      "et": 4089,
      "10": 4090,
      "ill": 4091,
      "has": 4092,
      "wor": 4093,
      "function": 4094,
      "cl": 4095,
      "ang": 4096,
      "comp": 4097,
      "age": 4098,
      "can": 4099,
      "if": 4100,
      "est": 4101,
      "out": 4102,
      "par": 4103,
      "tal": 4104,
      "one": 4105,
      "ll": 4106,
      "In": 4107,
      "ag": 4108,
      "op": 4109,
      "ст": 4110,
      "20": 4111,
      "rac": 4112,
      "iz": 4113,
      "ame": 4114,
      "many": 4115,
      "int": 4116,
      "ie": 4117,
      "this": 4118,
      "his": 4119,
      "wo": 4120,
      "\\),": 4121,
      "ther": 4122,
      "where": 4123,
      "ble": 4124,
      "ence": 4125,
      "form": 4126,
      "min": 4127,
      "com": 4128,
      "ans": 4129,
      "ни": 4130,
      "ant": 4131,
      "up": 4132,
      "ite": 4133,
      "iven": 4134,
      "ass": 4135,
      "present": 4136,
      "ud": 4137,
      "total": 4138,
      "ds": 4139,
      "put": 4140,
      "sp": 4141,
      "ure": 4142,
      "If": 4143,
      "day": 4144,
      "ks": 4145,
      "но": 4146,
      "should": 4147,
      "tur": 4148,
      "der": 4149,
      "time": 4150,
      "ong": 4151,
      "fe": 4152,
      "its": 4153,
      "low": 4154,
      "ies": 4155,
      "tim": 4156,
      "How": 4157,
      "tive": 4158,
      "term": 4159,
      "ра": 4160,
      "act": 4161,
      "ear": 4162,
      "br": 4163,
      "their": 4164,
      "ty": 4165,
      "you": 4166,
      "ance": 4167,
      "frac": 4168,
      "have": 4169,
      "ally": 4170,
      "du": 4171,
      "gra": 4172,
      "15": 4173,
      "cre": 4174,
      "over": 4175,
      "\",": 4176,
      "spe": 4177,
      "del": 4178,
      "12": 4179,
      "ph": 4180,
      "ase": 4181,
      "ive": 4182,
      "}{": 4183,
      "represent": 4184,
      "equ": 4185,
      "she": 4186,
      "turn": 4187,
      "\\).": 4188,
      "not": 4189,
      "mon": 4190,
      "tain": 4191,
      "od": 4192,
      "list": 4193,
      "dat": 4194,
      "enti": 4195,
      "ast": 4196,
      "cal": 4197,
      "mat": 4198,
      "ight": 4199,
      "cul": 4200,
      "how": 4201,
      "ous": 4202,
      "inte": 4203,
      "vi": 4204,
      "``": 4205,
      "two": 4206,
      "ich": 4207,
      "ated": 4208,
      "tra": 4209,
      "на": 4210,
      "el": 4211,
      "pr": 4212,
      "$,": 4213,
      "ffer": 4214,
      "lex": 4215,
      "return": 4216,
      "ро": 4217,
      "em": 4218,
      "om": 4219,
      "integ": 4220,
      "ary": 4221,
      "ice": 4222,
      "imp": 4223,
      "will": 4224,
      "rou": 4225,
      "pa": 4226,
      "cor": 4227,
      "ents": 4228,
      "red": 4229,
      "bl": 4230,
      "ations": 4231,
      "Wh": 4232,
      "des": 4233,
      "De": 4234,
      "enc": 4235,
      "ght": 4236,
      "inter": 4237,
      "ort": 4238,
      "ser": 4239,
      "av": 4240,
      "ack": 4241,
      "dis": 4242,
      "по": 4243,
      "bu": 4244,
      "model": 4245,
      "differ": 4246,
      "ants": 4247,
      "ound": 4248,
      "fo": 4249,
      "value": 4250,
      "year": 4251,
      "was": 4252,
      "то": 4253,
      "__": 4254,
      "row": 4255,
      "go": 4256,
      "^{": 4257,
      "ree": 4258,
      "ok": 4259,
      "sion": 4260,
      "tri": 4261,
      "art": 4262,
      "work": 4263,
      "ign": 4264,
      "which": 4265,
      "sy": 4266,
      "ical": 4267,
      "eng": 4268,
      "gh": 4269,
      "ren": 4270,
      "cri": 4271,
      "amp": 4272,
      "ile": 4273,
      "ре": 4274,
      "hour": 4275,
      "find": 4276,
      "new": 4277,
      "те": 4278,
      "ves": 4279,
      "able": 4280,
      "termine": 4281,
      "),": 4282,
      "than": 4283,
      "own": 4284,
      "ters": 4285,
      "but": 4286,
      "tions": 4287,
      "dist": 4288,
      "sum": 4289,
      "fol": 4290,
      "any": 4291,
      "sol": 4292,
      "col": 4293,
      "/>": 4294,
      "$\\": 4295,
      "play": 4296,
      "au": 4297,
      "----": 4298,
      "Th": 4299,
      "data": 4300,
      ");": 4301,
      "cur": 4302,
      "An": 4303,
      "tex": 4304,
      "ari": 4305,
      "stud": 4306,
      "ard": 4307,
      "cted": 4308,
      "fir": 4309,
      "ва": 4310,
      "ust": 4311,
      "bet": 4312,
      "more": 4313,
      "they": 4314,
      "la": 4315,
      "$.": 4316,
      "ace": 4317,
      "30": 4318,
      "les": 4319,
      "ep": 4320,
      "ft": 4321,
      "given": 4322,
      "ны": 4323,
      "pre": 4324,
      "ys": 4325,
      "ко": 4326,
      "need": 4327,
      "line": 4328,
      "into": 4329,
      "19": 4330,
      "ues": 4331,
      "igh": 4332,
      "follow": 4333,
      "max": 4334,
      "50": 4335,
      "Given": 4336,
      "je": 4337,
      "main": 4338,
      "yth": 4339,
      "there": 4340,
      ").": 4341,
      "right": 4342,
      "ob": 4343,
      "cess": 4344,
      "ль": 4345,
      "first": 4346,
      "ount": 4347,
      "What": 4348,
      "who": 4349,
      "',": 4350,
      "then": 4351,
      "ors": 4352,
      "fter": 4353,
      "const": 4354,
      "requ": 4355,
      "vel": 4356,
      "posi": 4357,
      "cent": 4358,
      "string": 4359,
      "such": 4360,
      "a_": 4361,
      "ip": 4362,
      "As": 4363,
      "ween": 4364,
      "ici": 4365,
      "ating": 4366,
      "eff": 4367,
      "between": 4368,
      "fin": 4369,
      "other": 4370,
      "18": 4371,
      "ints": 4372,
      "iti": 4373,
      "ени": 4374,
      "ри": 4375,
      "ory": 4376,
      "text": 4377,
      "ish": 4378,
      "og": 4379,
      "get": 4380,
      "ak": 4381,
      "dition": 4382,
      "some": 4383,
      "speci": 4384,
      "ates": 4385,
      "ever": 4386,
      "ck": 4387,
      "pos": 4388,
      "25": 4389,
      "ho": 4390,
      "set": 4391,
      "way": 4392,
      "vid": 4393,
      "imum": 4394,
      "000": 4395,
      "Ex": 4396,
      "gen": 4397,
      "ет": 4398,
      "using": 4399,
      "ython": 4400,
      "lement": 4401,
      "these": 4402,
      "numbers": 4403,
      "also": 4404,
      "во": 4405,
      "..": 4406,
      "vis": 4407,
      "ten": 4408,
      "your": 4409,
      "cons": 4410,
      "different": 4411,
      "hours": 4412,
      "He": 4413,
      "16": 4414,
      "24": 4415,
      "Alex": 4416,
      "ces": 4417,
      "ot": 4418,
      "\":": 4419,
      "She": 4420,
      "ли": 4421,
      "culate": 4422,
      "times": 4423,
      "cost": 4424,
      "aver": 4425,
      "left": 4426,
      "sub": 4427,
      "11": 4428,
      "For": 4429,
      "os": 4430,
      "cont": 4431,
      "го": 4432,
      "math": 4433,
      "cer": 4434,
      "ен": 4435,
      "ons": 4436,
      "13": 4437,
      "produ": 4438,
      "ful": 4439,
      "ка": 4440,
      "does": 4441,
      "wer": 4442,
      "ain": 4443,
      "fic": 4444,
      "fl": 4445,
      "Pro": 4446,
      "als": 4447,
      "car": 4448,
      "three": 4449,
      "ze": 4450,
      "rite": 4451,
      "sel": 4452,
      "now": 4453,
      "blem": 4454,
      "pt": 4455,
      "ning": 4456,
      "mar": 4457,
      "sco": 4458,
      "wee": 4459,
      "ility": 4460,
      "rect": 4461,
      "que": 4462,
      "_i": 4463,
      "ange": 4464,
      "reg": 4465,
      "---": 4466,
      "ular": 4467,
      "average": 4468,
      "ative": 4469,
      "ample": 4470,
      "ens": 4471,
      "mul": 4472,
      "them": 4473,
      "incl": 4474,
      "vol": 4475,
      "```": 4476,
      "dec": 4477,
      "ving": 4478,
      "let": 4479,
      "ding": 4480,
      "ily": 4481,
      "peri": 4482,
      "14": 4483,
      "angle": 4484,
      "pon": 4485,
      "ased": 4486,
      "problem": 4487,
      "pri": 4488,
      "point": 4489,
      "cho": 4490,
      "contain": 4491,
      "plan": 4492,
      "uring": 4493,
      "ater": 4494,
      "=\"": 4495,
      "mis": 4496,
      "об": 4497,
      "when": 4498,
      "son": 4499,
      "anal": 4500,
      "points": 4501,
      "cle": 4502,
      "sequ": 4503,
      "ry": 4504,
      "stem": 4505,
      "ло": 4506,
      "rel": 4507,
      "ved": 4508,
      "---|": 4509,
      "ти": 4510,
      "ть": 4511,
      "years": 4512,
      "':": 4513,
      "ength": 4514,
      "</": 4515,
      "sure": 4516,
      "ins": 4517,
      "long": 4518,
      "char": 4519,
      "che": 4520,
      "log": 4521,
      "cus": 4522,
      "length": 4523,
      "read": 4524,
      "integer": 4525,
      "trans": 4526,
      "determine": 4527,
      "under": 4528,
      "rough": 4529,
      "input": 4530,
      "what": 4531,
      "comm": 4532,
      "ize": 4533,
      "class": 4534,
      "my": 4535,
      "ctive": 4536,
      "rate": 4537,
      "23": 4538,
      "after": 4539,
      "ual": 4540,
      "cts": 4541,
      "lar": 4542,
      "cir": 4543,
      "stru": 4544,
      "fi": 4545,
      "ia": 4546,
      "ting": 4547,
      "self": 4548,
      "Each": 4549,
      "values": 4550,
      "ential": 4551,
      "were": 4552,
      "only": 4553,
      "17": 4554,
      "python": 4555,
      "through": 4556,
      "ati": 4557,
      "old": 4558,
      "да": 4559,
      "100": 4560,
      "ider": 4561,
      "ss": 4562,
      "gram": 4563,
      "}$": 4564,
      "ome": 4565,
      "secon": 4566,
      "99": 4567,
      "tern": 4568,
      "system": 4569,
      "mu": 4570,
      "about": 4571,
      "equation": 4572,
      "king": 4573,
      "positive": 4574,
      "ise": 4575,
      "both": 4576,
      "wants": 4577,
      "optim": 4578,
      "ub": 4579,
      "не": 4580,
      "та": 4581,
      "мо": 4582,
      "arch": 4583,
      "fy": 4584,
      "did": 4585,
      "hand": 4586,
      "men": 4587,
      "while": 4588,
      "uni": 4589,
      "sing": 4590,
      "ides": 4591,
      "same": 4592,
      "Find": 4593,
      "name": 4594,
      "velo": 4595,
      "ps": 4596,
      "month": 4597,
      "---|---|": 4598,
      "To": 4599,
      "**": 4600,
      "use": 4601,
      "squ": 4602,
      "за": 4603,
      "days": 4604,
      "ве": 4605,
      "like": 4606,
      "sa": 4607,
      "Ad": 4608,
      "utes": 4609,
      "че": 4610,
      "week": 4611,
      "ject": 4612,
      "fore": 4613,
      "rit": 4614,
      "less": 4615,
      "take": 4616,
      "],": 4617,
      "40": 4618,
      "pu": 4619,
      "},": 4620,
      "ability": 4621,
      "following": 4622,
      "integers": 4623,
      "sin": 4624,
      "Re": 4625,
      "mi": 4626,
      "vari": 4627,
      "pi": 4628,
      "vie": 4629,
      "де": 4630,
      "ments": 4631,
      "vent": 4632,
      "ask": 4633,
      "ures": 4634,
      "code": 4635,
      "real": 4636,
      "dig": 4637,
      "fer": 4638,
      "tical": 4639,
      "stand": 4640,
      "graph": 4641,
      "boo": 4642,
      "_1": 4643,
      "minutes": 4644,
      "60": 4645,
      "sm": 4646,
      "maximum": 4647,
      "gre": 4648,
      "representing": 4649,
      "//": 4650,
      "ult": 4651,
      "22": 4652,
      "ude": 4653,
      "ки": 4654,
      "grou": 4655,
      "analy": 4656,
      "ле": 4657,
      "Let": 4658,
      "ми": 4659,
      "pp": 4660,
      "ency": 4661,
      "expres": 4662,
      "had": 4663,
      "ases": 4664,
      "ties": 4665,
      "ced": 4666,
      "ild": 4667,
      "att": 4668,
      "every": 4669,
      "app": 4670,
      "ists": 4671,
      "sequence": 4672,
      "gu": 4673,
      "da": 4674,
      "ся": 4675,
      "This": 4676,
      "Determine": 4677,
      "200": 4678,
      "pass": 4679,
      "sible": 4680,
      "sc": 4681,
      "emp": 4682,
      "):": 4683,
      "vide": 4684,
      "mer": 4685,
      "Write": 4686,
      "ла": 4687,
      "count": 4688,
      "sto": 4689,
      "ages": 4690,
      "dic": 4691,
      "within": 4692,
      "students": 4693,
      "(\"": 4694,
      "ath": 4695,
      "answer": 4696,
      "ric": 4697,
      "Ch": 4698,
      "vo": 4699,
      "ng": 4700,
      "requi": 4701,
      "kes": 4702,
      "med": 4703,
      "ray": 4704,
      "ма": 4705,
      "ци": 4706,
      "respon": 4707,
      "ques": 4708,
      "cover": 4709,
      "complex": 4710,
      "back": 4711,
      "tw": 4712,
      "cu": 4713,
      "28": 4714,
      "cap": 4715,
      "ide": 4716,
      "olog": 4717,
      "ings": 4718,
      "rix": 4719,
      "bin": 4720,
      "loc": 4721,
      "}\\": 4722,
      "por": 4723,
      "try": 4724,
      "nam": 4725,
      "colle": 4726,
      "divid": 4727,
      "sur": 4728,
      "про": 4729,
      "start": 4730,
      "mathb": 4731,
      "least": 4732,
      "Co": 4733,
      "ля": 4734,
      "represents": 4735,
      "mal": 4736,
      "area": 4737,
      "You": 4738,
      "ga": 4739,
      "effici": 4740,
      "bi": 4741,
      "add": 4742,
      "ges": 4743,
      "gr": 4744,
      "ms": 4745,
      "rt": 4746,
      ")$": 4747,
      "_2": 4748,
      "prof": 4749,
      "multi": 4750,
      "Out": 4751,
      "до": 4752,
      "IN": 4753,
      "dra": 4754,
      "AB": 4755,
      "woman": 4756,
      "calculate": 4757,
      "element": 4758,
      "quad": 4759,
      "output": 4760,
      "ност": 4761,
      "path": 4762,
      "part": 4763,
      "initi": 4764,
      "hel": 4765,
      "ext": 4766,
      "high": 4767,
      "user": 4768,
      "_0": 4769,
      "--------": 4770,
      "fa": 4771,
      "fact": 4772,
      "pha": 4773,
      "ateg": 4774,
      "side": 4775,
      "train": 4776,
      "mem": 4777,
      "based": 4778,
      "ality": 4779,
      "pot": 4780,
      "must": 4781,
      "mil": 4782,
      "It": 4783,
      "tit": 4784,
      "second": 4785,
      "ends": 4786,
      "On": 4787,
      "ru": 4788,
      "incre": 4789,
      "struct": 4790,
      "would": 4791,
      "possible": 4792,
      "hum": 4793,
      "()": 4794,
      "ature": 4795,
      "ution": 4796,
      "ress": 4797,
      "velop": 4798,
      "No": 4799,
      "ni": 4800,
      "pected": 4801,
      "flo": 4802,
      "Con": 4803,
      "square": 4804,
      "cy": 4805,
      "ness": 4806,
      "ket": 4807,
      "ON": 4808,
      "ava": 4809,
      "level": 4810,
      "curren": 4811,
      "den": 4812,
      "cdo": 4813,
      "ple": 4814,
      "lin": 4815,
      "books": 4816,
      "ви": 4817,
      "21": 4818,
      "sq": 4819,
      "certain": 4820,
      "much": 4821,
      "со": 4822,
      "used": 4823,
      "ord": 4824,
      "ship": 4825,
      "show": 4826,
      "pol": 4827,
      "run": 4828,
      "order": 4829,
      "pose": 4830,
      "small": 4831,
      "coun": 4832,
      "remain": 4833,
      "matrix": 4834,
      "search": 4835,
      "____": 4836,
      "charac": 4837,
      "process": 4838,
      "program": 4839,
      "distri": 4840,
      "team": 4841,
      "off": 4842,
      "dy": 4843,
      "ner": 4844,
      "word": 4845,
      "non": 4846,
      "effe": 4847,
      "Cal": 4848,
      "temp": 4849,
      "gener": 4850,
      "unique": 4851,
      "34": 4852,
      "table": 4853,
      "ick": 4854,
      "ose": 4855,
      "80": 4856,
      "ople": 4857,
      "fil": 4858,
      "gan": 4859,
      "score": 4860,
      "ption": 4861,
      "ization": 4862,
      "make": 4863,
      "alpha": 4864,
      "type": 4865,
      "key": 4866,
      "soci": 4867,
      "27": 4868,
      "war": 4869,
      ".,": 4870,
      "pat": 4871,
      "view": 4872,
      "St": 4873,
      "led": 4874,
      "(\\": 4875,
      "array": 4876,
      "gin": 4877,
      "ield": 4878,
      "ches": 4879,
      "-->": 4880,
      "grow": 4881,
      "ensure": 4882,
      "specific": 4883,
      "ah": 4884,
      "fac": 4885,
      "sqrt": 4886,
      "бо": 4887,
      "task": 4888,
      "There": 4889,
      "respe": 4890,
      "sign": 4891,
      "net": 4892,
      "sume": 4893,
      "people": 4894,
      "ру": 4895,
      "ene": 4896,
      "him": 4897,
      "[\"": 4898,
      "formation": 4899,
      "ots": 4900,
      "appl": 4901,
      "lect": 4902,
      "ross": 4903,
      "вы": 4904,
      "ме": 4905,
      "уч": 4906,
      "diction": 4907,
      "Output": 4908,
      "modeled": 4909,
      "45": 4910,
      "exp": 4911,
      "\\(\\": 4912,
      "AR": 4913,
      "oper": 4914,
      "needs": 4915,
      "gg": 4916,
      "{\\": 4917,
      "triangle": 4918,
      "tiv": 4919,
      "ED": 4920,
      "ational": 4921,
      "90": 4922,
      "descri": 4923,
      "atis": 4924,
      "pop": 4925,
      "local": 4926,
      "decides": 4927,
      "tech": 4928,
      "design": 4929,
      "ball": 4930,
      "game": 4931,
      "sk": 4932,
      "flu": 4933,
      "includ": 4934,
      "ics": 4935,
      "ian": 4936,
      "ication": 4937,
      "appro": 4938,
      "We": 4939,
      "words": 4940,
      "pow": 4941,
      "come": 4942,
      "They": 4943,
      "even": 4944,
      "пе": 4945,
      "ute": 4946,
      "most": 4947,
      "ized": 4948,
      "speed": 4949,
      "oc": 4950,
      "Calculate": 4951,
      "/><": 4952,
      "fri": 4953,
      "range": 4954,
      "def": 4955,
      "ling": 4956,
      "ars": 4957,
      "commun": 4958,
      "ib": 4959,
      "import": 4960,
      "inst": 4961,
      "amount": 4962,
      "terms": 4963,
      "ls": 4964,
      "mus": 4965,
      "gor": 4966,
      "26": 4967,
      "err": 4968,
      "pie": 4969,
      "ted": 4970,
      "lls": 4971,
      "Al": 4972,
      "OR": 4973,
      "could": 4974,
      "writ": 4975,
      "ats": 4976,
      "expression": 4977,
      "ey": 4978,
      "inde": 4979,
      "ences": 4980,
      "child": 4981,
      "group": 4982,
      "during": 4983,
      "face": 4984,
      "Example": 4985,
      "light": 4986,
      "strong": 4987,
      "ession": 4988,
      "create": 4989,
      "ди": 4990,
      "ение": 4991,
      "hist": 4992,
      "Ar": 4993,
      "poly": 4994,
      "person": 4995,
      "date": 4996,
      "meth": 4997,
      "ER": 4998,
      "Input": 4999,
      "ения": 5000,
      "may": 5001,
      "been": 5002,
      "current": 5003,
      "$(": 5004,
      "ctor": 5005,
      "bre": 5006,
      "sent": 5007,
      "29": 5008,
      "ener": 5009,
      "kn": 5010,
      "lete": 5011,
      "just": 5012,
      "know": 5013,
      "consider": 5014,
      "chool": 5015,
      "box": 5016,
      "parti": 5017,
      "step": 5018,
      "before": 5019,
      "combin": 5020,
      "case": 5021,
      "forman": 5022,
      "test": 5023,
      "addition": 5024,
      "exact": 5025,
      "раз": 5026,
      "==": 5027,
      "four": 5028,
      "gam": 5029,
      "gorith": 5030,
      "prob": 5031,
      "pattern": 5032,
      "ных": 5033,
      "Mo": 5034,
      "EN": 5035,
      "constant": 5036,
      "Assume": 5037,
      "cdot": 5038,
      "mb": 5039,
      "identi": 5040,
      "Po": 5041,
      "cip": 5042,
      "Sup": 5043,
      "city": 5044,
      "land": 5045,
      "digit": 5046,
      "tric": 5047,
      "izing": 5048,
      "ax": 5049,
      "student": 5050,
      "gi": 5051,
      "minimum": 5052,
      "tail": 5053,
      "asm": 5054,
      "32": 5055,
      "port": 5056,
      "exce": 5057,
      "distribu": 5058,
      "tre": 5059,
      "orig": 5060,
      "publ": 5061,
      "fill": 5062,
      "human": 5063,
      "ator": 5064,
      "lie": 5065,
      "ST": 5066,
      "mathbf": 5067,
      "cript": 5068,
      "organ": 5069,
      "distance": 5070,
      "action": 5071,
      "being": 5072,
      "lit": 5073,
      "performan": 5074,
      "ca": 5075,
      "pur": 5076,
      "initial": 5077,
      "ough": 5078,
      "algorith": 5079,
      "product": 5080,
      "))": 5081,
      "ima": 5082,
      "wa": 5083,
      "75": 5084,
      "clo": 5085,
      "takes": 5086,
      "rece": 5087,
      "room": 5088,
      "last": 5089,
      "при": 5090,
      "тель": 5091,
      "down": 5092,
      "meters": 5093,
      "section": 5094,
      "ery": 5095,
      "150": 5096,
      "ctively": 5097,
      "lay": 5098,
      "include": 5099,
      "power": 5100,
      "}+": 5101,
      "bal": 5102,
      "equal": 5103,
      "ities": 5104,
      "ис": 5105,
      "ulation": 5106,
      "cum": 5107,
      "represented": 5108,
      "move": 5109,
      "contains": 5110,
      "sal": 5111,
      "ird": 5112,
      "zing": 5113,
      "radi": 5114,
      "sive": 5115,
      "After": 5116,
      "develop": 5117,
      "33": 5118,
      "ways": 5119,
      "example": 5120,
      "Tang": 5121,
      "school": 5122,
      "pair": 5123,
      "At": 5124,
      "ural": 5125,
      "known": 5126,
      "want": 5127,
      "си": 5128,
      "asmine": 5129,
      "Jasmine": 5130,
      "от": 5131,
      "Addition": 5132,
      "...": 5133,
      "circle": 5134,
      "ста": 5135,
      "uses": 5136,
      "origin": 5137,
      "Py": 5138,
      "bed": 5139,
      "help": 5140,
      "ron": 5141,
      "research": 5142,
      "hy": 5143,
      "size": 5144,
      "ial": 5145,
      "70": 5146,
      "Suppose": 5147,
      "returning": 5148,
      "Em": 5149,
      "invol": 5150,
      "result": 5151,
      "experi": 5152,
      "member": 5153,
      "maxim": 5154,
      "draw": 5155,
      "Additionally": 5156,
      "vice": 5157,
      "gy": 5158,
      "En": 5159,
      "performance": 5160,
      "Se": 5161,
      "frequ": 5162,
      "из": 5163,
      "rest": 5164,
      "cau": 5165,
      "growth": 5166,
      "exactly": 5167,
      "period": 5168,
      "leg": 5169,
      "potential": 5170,
      "found": 5171,
      "conne": 5172,
      "event": 5173,
      "series": 5174,
      "satis": 5175,
      "water": 5176,
      "cos": 5177,
      "atic": 5178,
      "lear": 5179,
      "again": 5180,
      "defin": 5181,
      "ной": 5182,
      "Prove": 5183,
      "35": 5184,
      "ris": 5185,
      "units": 5186,
      "print": 5187,
      "themat": 5188,
      "contin": 5189,
      "va": 5190,
      "Tr": 5191,
      "ank": 5192,
      "vers": 5193,
      "ash": 5194,
      "fied": 5195,
      "base": 5196,
      "anti": 5197,
      "ason": 5198,
      "bus": 5199,
      "van": 5200,
      "player": 5201,
      "ults": 5202,
      "AT": 5203,
      "ры": 5204,
      "Sub": 5205,
      "labe": 5206,
      ".\"": 5207,
      "alth": 5208,
      "beta": 5209,
      "RE": 5210,
      "prime": 5211,
      "}}": 5212,
      "influ": 5213,
      "elements": 5214,
      "Jo": 5215,
      "sci": 5216,
      "sti": 5217,
      "algorithm": 5218,
      "rimis": 5219,
      "follows": 5220,
      "Pyrimis": 5221,
      "strateg": 5222,
      "probability": 5223,
      "fam": 5224,
      "hal": 5225,
      "\\\\": 5226,
      "jo": 5227,
      "provid": 5228,
      "2x": 5229,
      "partic": 5230,
      "typ": 5231,
      "36": 5232,
      "ded": 5233,
      "book": 5234,
      "Pok": 5235,
      "rand": 5236,
      "And": 5237,
      "ited": 5238,
      "Poké": 5239,
      "life": 5240,
      "reach": 5241,
      "atch": 5242,
      "cases": 5243,
      "without": 5244,
      "weight": 5245,
      "ices": 5246,
      "deci": 5247,
      "ouse": 5248,
      "AN": 5249,
      "fra": 5250,
      "mean": 5251,
      "dictionary": 5252,
      "termin": 5253,
      "special": 5254,
      "vir": 5255,
      "top": 5256,
      "Un": 5257,
      "study": 5258,
      "ink": 5259,
      "appe": 5260,
      "due": 5261,
      "change": 5262,
      "uc": 5263,
      "ought": 5264,
      "rid": 5265,
      "project": 5266,
      "air": 5267,
      "nor": 5268,
      "expected": 5269,
      "price": 5270,
      "ark": 5271,
      "dep": 5272,
      "чес": 5273,
      "suc": 5274,
      "relation": 5275,
      "Jam": 5276,
      "call": 5277,
      "mor": 5278,
      "complete": 5279,
      "lim": 5280,
      "py": 5281,
      "well": 5282,
      "distribution": 5283,
      "session": 5284,
      "ict": 5285,
      "begin": 5286,
      "ref": 5287,
      "strings": 5288,
      "Name": 5289,
      "third": 5290,
      "prote": 5291,
      "_n": 5292,
      "handle": 5293,
      "Comp": 5294,
      "blo": 5295,
      "information": 5296,
      "ically": 5297,
      "пре": 5298,
      "ye": 5299,
      "}$,": 5300,
      "ken": 5301,
      "мен": 5302,
      "travel": 5303,
      "mathemat": 5304,
      "field": 5305,
      "correct": 5306,
      "ger": 5307,
      "state": 5308,
      "angu": 5309,
      "ldots": 5310,
      "world": 5311,
      "{(": 5312,
      "ared": 5313,
      "500": 5314,
      "supp": 5315,
      "ns": 5316,
      "height": 5317,
      "respectively": 5318,
      "next": 5319,
      "very": 5320,
      "expl": 5321,
      "spend": 5322,
      "aim": 5323,
      "ming": 5324,
      "ese": 5325,
      "nomi": 5326,
      "understand": 5327,
      "ordin": 5328,
      "66": 5329,
      "Pokémon": 5330,
      "solution": 5331,
      "plans": 5332,
      "polynomi": 5333,
      "tom": 5334,
      "lease": 5335,
      "meas": 5336,
      "place": 5337,
      "quadr": 5338,
      "don": 5339,
      "domain": 5340,
      "impact": 5341,
      "Cons": 5342,
      "flow": 5343,
      "ina": 5344,
      "working": 5345,
      "Dr": 5346,
      "position": 5347,
      "wid": 5348,
      "ные": 5349,
      "region": 5350,
      "thing": 5351,
      "sis": 5352,
      "{\"": 5353,
      "arr": 5354,
      "urther": 5355,
      "twice": 5356,
      "across": 5357,
      "tices": 5358,
      "question": 5359,
      "inv": 5360,
      "Te": 5361,
      "ently": 5362,
      "leq": 5363,
      "})": 5364,
      "aff": 5365,
      "fig": 5366,
      ".<": 5367,
      "und": 5368,
      "cause": 5369,
      "see": 5370,
      "large": 5371,
      "implement": 5372,
      "home": 5373,
      "calcul": 5374,
      "щи": 5375,
      "detail": 5376,
      "pred": 5377,
      "bles": 5378,
      "costs": 5379,
      "multiple": 5380,
      "ditions": 5381,
      "cup": 5382,
      "Le": 5383,
      "сти": 5384,
      "ights": 5385,
      "individ": 5386,
      "head": 5387,
      "valu": 5388,
      "network": 5389,
      "---|---|---|---|": 5390,
      "Python": 5391,
      "ire": 5392,
      "sen": 5393,
      "ories": 5394,
      "lot": 5395,
      "constra": 5396,
      "bas": 5397,
      "sch": 5398,
      "direct": 5399,
      "additional": 5400,
      "sed": 5401,
      "particular": 5402,
      "Consider": 5403,
      "write": 5404,
      "solve": 5405,
      "ake": 5406,
      "ev": 5407,
      "polynomial": 5408,
      "ero": 5409,
      "ific": 5410,
      "made": 5411,
      "half": 5412,
      "far": 5413,
      "another": 5414,
      "aries": 5415,
      "story": 5416,
      "once": 5417,
      "arrow": 5418,
      "provide": 5419,
      "}^{": 5420,
      "gether": 5421,
      "public": 5422,
      "pati": 5423,
      "quality": 5424,
      "sit": 5425,
      "tional": 5426,
      "Emily": 5427,
      "constants": 5428,
      "anges": 5429,
      "SS": 5430,
      "се": 5431,
      "har": 5432,
      "differential": 5433,
      "redu": 5434,
      "sl": 5435,
      "item": 5436,
      "single": 5437,
      "ну": 5438,
      "ety": 5439,
      "still": 5440,
      "character": 5441,
      "bro": 5442,
      "ного": 5443,
      "hn": 5444,
      "dri": 5445,
      "coordin": 5446,
      "space": 5447,
      "bud": 5448,
      "ste": 5449,
      "wards": 5450,
      "55": 5451,
      "48": 5452,
      "iness": 5453,
      "hol": 5454,
      "sions": 5455,
      "ounds": 5456,
      "index": 5457,
      "Ne": 5458,
      "aw": 5459,
      "cand": 5460,
      "Bo": 5461,
      "hold": 5462,
      "ча": 5463,
      "format": 5464,
      "conditions": 5465,
      "tract": 5466,
      "display": 5467,
      "method": 5468,
      "120": 5469,
      "determin": 5470,
      "shop": 5471,
      "width": 5472,
      "dt": 5473,
      "interest": 5474,
      "Cre": 5475,
      "\"]": 5476,
      "success": 5477,
      "AC": 5478,
      "хо": 5479,
      "center": 5480,
      "что": 5481,
      "dimen": 5482,
      "ния": 5483,
      "models": 5484,
      "ей": 5485,
      "parame": 5486,
      "сто": 5487,
      "contro": 5488,
      "company": 5489,
      "mess": 5490,
      "recor": 5491,
      "So": 5492,
      "са": 5493,
      "}=": 5494,
      "pare": 5495,
      "around": 5496,
      "plac": 5497,
      "analyze": 5498,
      "ending": 5499,
      "blog": 5500,
      "tar": 5501,
      "population": 5502,
      "inct": 5503,
      "tes": 5504,
      "aset": 5505,
      "linear": 5506,
      "Your": 5507,
      "common": 5508,
      "dol": 5509,
      "ible": 5510,
      "langu": 5511,
      "buy": 5512,
      "Jamie": 5513,
      "\">": 5514,
      "ned": 5515,
      "ung": 5516,
      "random": 5517,
      "uan": 5518,
      "oney": 5519,
      "bb": 5520,
      "care": 5521,
      "ured": 5522,
      "ology": 5523,
      "('": 5524,
      "those": 5525,
      "ids": 5526,
      "ods": 5527,
      "ду": 5528,
      "obser": 5529,
      "remaining": 5530,
      "gir": 5531,
      "round": 5532,
      "analyzing": 5533,
      "istic": 5534,
      "web": 5535,
      "hi": 5536,
      "ream": 5537,
      "ние": 5538,
      "anci": 5539,
      "lead": 5540,
      "kets": 5541,
      "budget": 5542,
      "But": 5543,
      "community": 5544,
      "zz": 5545,
      "minim": 5546,
      "cti": 5547,
      "star": 5548,
      "factor": 5549,
      "tivity": 5550,
      "mid": 5551,
      "divis": 5552,
      "keys": 5553,
      "чи": 5554,
      "post": 5555,
      "allow": 5556,
      "defined": 5557,
      "ги": 5558,
      "amb": 5559,
      "impro": 5560,
      "alloc": 5561,
      "signific": 5562,
      "correspon": 5563,
      "miles": 5564,
      "together": 5565,
      "seg": 5566,
      "prac": 5567,
      "atio": 5568,
      "John": 5569,
      "sw": 5570,
      "histor": 5571,
      "Sh": 5572,
      "edge": 5573,
      "color": 5574,
      "characters": 5575,
      "particip": 5576,
      "against": 5577,
      "ctions": 5578,
      "ты": 5579,
      "sty": 5580,
      "-\\": 5581,
      "youn": 5582,
      "izes": 5583,
      "x_": 5584,
      "including": 5585,
      "types": 5586,
      "SE": 5587,
      "sof": 5588,
      "ton": 5589,
      "acy": 5590,
      "&#": 5591,
      "{'": 5592,
      "ately": 5593,
      "proper": 5594,
      "feet": 5595,
      "dire": 5596,
      "rightarrow": 5597,
      "ор": 5598,
      "ann": 5599,
      "78": 5600,
      "му": 5601,
      "energy": 5602,
      "Be": 5603,
      "formul": 5604,
      "five": 5605,
      "abo": 5606,
      "bot": 5607,
      "mes": 5608,
      "мы": 5609,
      "ABC": 5610,
      "gl": 5611,
      "here": 5612,
      "sil": 5613,
      "dataset": 5614,
      "content": 5615,
      "ку": 5616,
      "load": 5617,
      "valid": 5618,
      "label": 5619,
      "sort": 5620,
      "gon": 5621,
      "ral": 5622,
      "alle": 5623,
      "corpor": 5624,
      "optimal": 5625,
      "Use": 5626,
      "equations": 5627,
      "44": 5628,
      "ward": 5629,
      "38": 5630,
      "Go": 5631,
      "ously": 5632,
      "distinct": 5633,
      "body": 5634,
      "ane": 5635,
      "required": 5636,
      "might": 5637,
      "ratio": 5638,
      "cook": 5639,
      "eyes": 5640,
      "cm": 5641,
      "whe": 5642,
      "##": 5643,
      "percent": 5644,
      "cli": 5645,
      "}$.": 5646,
      "wal": 5647,
      "ysis": 5648,
      "recei": 5649,
      "ин": 5650,
      "alse": 5651,
      "fully": 5652,
      "бы": 5653,
      "meet": 5654,
      "simp": 5655,
      "tru": 5656,
      "kil": 5657,
      "health": 5658,
      "Sol": 5659,
      "However": 5660,
      "relationship": 5661,
      "vector": 5662,
      "3x": 5663,
      "money": 5664,
      "entire": 5665,
      "paper": 5666,
      "friend": 5667,
      "bra": 5668,
      "abor": 5669,
      "title": 5670,
      "].": 5671,
      "else": 5672,
      "games": 5673,
      "tem": 5674,
      "sele": 5675,
      "response": 5676,
      "gs": 5677,
      "pages": 5678,
      "exist": 5679,
      "scal": 5680,
      "works": 5681,
      "IT": 5682,
      "discus": 5683,
      "sell": 5684,
      "song": 5685,
      "race": 5686,
      "divided": 5687,
      "ries": 5688,
      "ration": 5689,
      "antum": 5690,
      "Des": 5691,
      "56": 5692,
      "chap": 5693,
      "error": 5694,
      "nat": 5695,
      "asy": 5696,
      "original": 5697,
      "house": 5698,
      "sor": 5699,
      "ют": 5700,
      "colum": 5701,
      "months": 5702,
      "Create": 5703,
      "зо": 5704,
      "Please": 5705,
      "39": 5706,
      "Is": 5707,
      "ши": 5708,
      "stra": 5709,
      "buil": 5710,
      "exceed": 5711,
      "Sy": 5712,
      "frequency": 5713,
      "bor": 5714,
      "();": 5715,
      "ither": 5716,
      "verse": 5717,
      "31": 5718,
      "(-": 5719,
      "Can": 5720,
      "past": 5721,
      "era": 5722,
      "til": 5723,
      "зна": 5724,
      "ности": 5725,
      "family": 5726,
      "mathematical": 5727,
      "open": 5728,
      "ference": 5729,
      "unit": 5730,
      "true": 5731,
      "float": 5732,
      "sentence": 5733,
      "quantum": 5734,
      "ный": 5735,
      "ran": 5736,
      "ler": 5737,
      "ource": 5738,
      "final": 5739,
      "US": 5740,
      "among": 5741,
      "DE": 5742,
      "OF": 5743,
      "acks": 5744,
      "maintain": 5745,
      "along": 5746,
      "ism": 5747,
      "because": 5748,
      "exe": 5749,
      "LE": 5750,
      "tu": 5751,
      "atures": 5752,
      "lines": 5753,
      "advan": 5754,
      "When": 5755,
      "$$": 5756,
      "jects": 5757,
      "dro": 5758,
      "actions": 5759,
      "numer": 5760,
      "ares": 5761,
      "ств": 5762,
      "mulate": 5763,
      "away": 5764,
      "bar": 5765,
      "ided": 5766,
      "же": 5767,
      "ples": 5768,
      "Do": 5769,
      "paint": 5770,
      "techn": 5771,
      "skill": 5772,
      "UT": 5773,
      "seconds": 5774,
      "mas": 5775,
      "agon": 5776,
      "46": 5777,
      "na": 5778,
      "events": 5779,
      "bag": 5780,
      "hor": 5781,
      "agement": 5782,
      "300": 5783,
      "span": 5784,
      "pieces": 5785,
      "ied": 5786,
      "pay": 5787,
      "radius": 5788,
      "ils": 5789,
      "quadratic": 5790,
      "io": 5791,
      "tle": 5792,
      "уча": 5793,
      "collection": 5794,
      "file": 5795,
      "mbol": 5796,
      "business": 5797,
      "Ty": 5798,
      "па": 5799,
      "coeffici": 5800,
      "01": 5801,
      "cour": 5802,
      "ik": 5803,
      "since": 5804,
      "efficiency": 5805,
      "approach": 5806,
      "ired": 5807,
      "ят": 5808,
      "results": 5809,
      "lt": 5810,
      "mental": 5811,
      "node": 5812,
      "requires": 5813,
      "purch": 5814,
      "layer": 5815,
      "above": 5816,
      "jour": 5817,
      "theta": 5818,
      "plane": 5819,
      "Note": 5820,
      "Her": 5821,
      "One": 5822,
      "script": 5823,
      "dollar": 5824,
      "language": 5825,
      "chall": 5826,
      "children": 5827,
      "User": 5828,
      "emplo": 5829,
      "increase": 5830,
      "77": 5831,
      "\"\"": 5832,
      "fut": 5833,
      "oid": 5834,
      "mage": 5835,
      "target": 5836,
      "training": 5837,
      "для": 5838,
      "ender": 5839,
      "ses": 5840,
      "sever": 5841,
      "auth": 5842,
      "95": 5843,
      "соб": 5844,
      "achie": 5845,
      "various": 5846,
      "IA": 5847,
      "maximize": 5848,
      "бе": 5849,
      "Ed": 5850,
      "ift": 5851,
      "goti": 5852,
      "HT": 5853,
      "cing": 5854,
      "_A": 5855,
      "neg": 5856,
      "overrightarrow": 5857,
      ")^": 5858,
      "sold": 5859,
      "scen": 5860,
      "inf": 5861,
      "aring": 5862,
      "chan": 5863,
      "spir": 5864,
      "ground": 5865,
      "ata": 5866,
      "ade": 5867,
      "га": 5868,
      "ions": 5869,
      "teach": 5870,
      "els": 5871,
      "containing": 5872,
      "Me": 5873,
      "ore": 5874,
      "cept": 5875,
      "formed": 5876,
      "engine": 5877,
      "provided": 5878,
      "cting": 5879,
      "ется": 5880,
      "support": 5881,
      "lamb": 5882,
      "cell": 5883,
      "bir": 5884,
      "psy": 5885,
      "Car": 5886,
      "ones": 5887,
      "ffic": 5888,
      "aria": 5889,
      "mark": 5890,
      "great": 5891,
      "Cl": 5892,
      "uration": 5893,
      "Then": 5894,
      "young": 5895,
      "mic": 5896,
      "ually": 5897,
      "give": 5898,
      "пра": 5899,
      "condition": 5900,
      "break": 5901,
      "influence": 5902,
      "further": 5903,
      "AG": 5904,
      "dr": 5905,
      "blue": 5906,
      "$?": 5907,
      "best": 5908,
      "tice": 5909,
      "docum": 5910,
      "wind": 5911,
      "look": 5912,
      "igma": 5913,
      "comput": 5914,
      "smallest": 5915,
      "piece": 5916,
      "empty": 5917,
      "ull": 5918,
      "mathbb": 5919,
      "spent": 5920,
      "MAR": 5921,
      "nan": 5922,
      "pen": 5923,
      "identify": 5924,
      "\".": 5925,
      "ilities": 5926,
      "cr": 5927,
      "mag": 5928,
      "anim": 5929,
      "ale": 5930,
      "artic": 5931,
      "ended": 5932,
      "discover": 5933,
      "check": 5934,
      "avail": 5935,
      "lic": 5936,
      "ensity": 5937,
      "natural": 5938,
      "));": 5939,
      "Eng": 5940,
      "ume": 5941,
      "ond": 5942,
      "phys": 5943,
      "weeks": 5944,
      "structure": 5945,
      "zero": 5946,
      "ital": 5947,
      "store": 5948,
      "complexity": 5949,
      "profit": 5950,
      "Id": 5951,
      "pack": 5952,
      "ush": 5953,
      "scores": 5954,
      "metic": 5955,
      "stract": 5956,
      "ources": 5957,
      "стра": 5958,
      "towards": 5959,
      "ished": 5960,
      "Expected": 5961,
      "Type": 5962,
      "angular": 5963,
      "ban": 5964,
      "лю": 5965,
      "tural": 5966,
      "good": 5967,
      "ID": 5968,
      "ще": 5969,
      "comes": 5970,
      "ции": 5971,
      "lists": 5972,
      "digits": 5973,
      "dollars": 5974,
      "sets": 5975,
      "div": 5976,
      "mod": 5977,
      "mach": 5978,
      "pan": 5979,
      "erson": 5980,
      "----------------": 5981,
      "continu": 5982,
      "Sm": 5983,
      "96": 5984,
      "CO": 5985,
      "keep": 5986,
      "said": 5987,
      "II": 5988,
      "review": 5989,
      "lu": 5990,
      "got": 5991,
      "((": 5992,
      ")=": 5993,
      "Ro": 5994,
      "ician": 5995,
      "ya": 5996,
      "combined": 5997,
      "invest": 5998,
      "ager": 5999,
      "37": 6000,
      "foot": 6001,
      "late": 6002,
      "ression": 6003,
      ")--": 6004,
      "full": 6005,
      "cas": 6006,
      "km": 6007,
      "len": 6008,
      "ность": 6009,
      "viron": 6010,
      "cat": 6011,
      "oth": 6012,
      "Item": 6013,
      "Mr": 6014,
      "iv": 6015,
      "сле": 6016,
      "plant": 6017,
      "85": 6018,
      "ape": 6019,
      "a_n": 6020,
      "learning": 6021,
      "Res": 6022,
      "super": 6023,
      "кото": 6024,
      "capac": 6025,
      "social": 6026,
      "paren": 6027,
      "сть": 6028,
      "needed": 6029,
      "AP": 6030,
      "pend": 6031,
      "ances": 6032,
      "deep": 6033,
      "negative": 6034,
      "During": 6035,
      "negoti": 6036,
      ")$,": 6037,
      "AM": 6038,
      "sides": 6039,
      "lower": 6040,
      "difference": 6041,
      "bought": 6042,
      "law": 6043,
      "evalu": 6044,
      "iting": 6045,
      "_B": 6046,
      "_id": 6047,
      "win": 6048,
      "environ": 6049,
      "64": 6050,
      ")\\)": 6051,
      "qquad": 6052,
      "site": 6053,
      "ense": 6054,
      "mind": 6055,
      "available": 6056,
      "goal": 6057,
      "require": 6058,
      "techni": 6059,
      "IC": 6060,
      "issu": 6061,
      "++": 6062,
      "categ": 6063,
      "ustr": 6064,
      "analysis": 6065,
      "predic": 6066,
      "Person": 6067,
      "match": 6068,
      "xt": 6069,
      "htt": 6070,
      "::": 6071,
      "omega": 6072,
      "satisfy": 6073,
      "MARIA": 6074,
      "His": 6075,
      "Spe": 6076,
      "ef": 6077,
      "angles": 6078,
      "friends": 6079,
      "List": 6080,
      "Maria": 6081,
      "erature": 6082,
      "atform": 6083,
      "focus": 6084,
      "involves": 6085,
      "future": 6086,
      "style": 6087,
      "['": 6088,
      "geome": 6089,
      "necess": 6090,
      "://": 6091,
      "rey": 6092,
      "history": 6093,
      "often": 6094,
      "une": 6095,
      "members": 6096,
      "\")": 6097,
      "Com": 6098,
      "Mon": 6099,
      "Ques": 6100,
      "libr": 6101,
      "application": 6102,
      "corresponding": 6103,
      "42": 6104,
      "RO": 6105,
      "grid": 6106,
      "rows": 6107,
      "normal": 6108,
      "improve": 6109,
      "cookies": 6110,
      "indic": 6111,
      "puts": 6112,
      "season": 6113,
      "essor": 6114,
      "floor": 6115,
      "sched": 6116,
      "historical": 6117,
      "49": 6118,
      "Java": 6119,
      "жи": 6120,
      "coll": 6121,
      "assum": 6122,
      "explain": 6123,
      "tics": 6124,
      "cles": 6125,
      "Formulate": 6126,
      "names": 6127,
      "conom": 6128,
      "sho": 6129,
      "_3": 6130,
      "гра": 6131,
      "ту": 6132,
      "avor": 6133,
      "cutive": 6134,
      "Ans": 6135,
      "meter": 6136,
      "cut": 6137,
      "say": 6138,
      "arg": 6139,
      "stu": 6140,
      "inequality": 6141,
      "fect": 6142,
      "custom": 6143,
      "True": 6144,
      "bf": 6145,
      "lish": 6146,
      "functions": 6147,
      "compon": 6148,
      "су": 6149,
      "either": 6150,
      "fit": 6151,
      "кти": 6152,
      "icy": 6153,
      "consist": 6154,
      "individual": 6155,
      "ines": 6156,
      "вать": 6157,
      "image": 6158,
      "optimization": 6159,
      "surface": 6160,
      "Lo": 6161,
      "SON": 6162,
      "sum_": 6163,
      "planning": 6164,
      "music": 6165,
      "sales": 6166,
      "Str": 6167,
      "`,": 6168,
      "za": 6169,
      "loss": 6170,
      "simil": 6171,
      "')": 6172,
      "ering": 6173,
      "estim": 6174,
      "ensuring": 6175,
      "ana": 6176,
      "rele": 6177,
      "gene": 6178,
      "always": 6179,
      "под": 6180,
      "1000": 6181,
      ")}\\": 6182,
      "bit": 6183,
      "это": 6184,
      "фор": 6185,
      "remains": 6186,
      "ify": 6187,
      "cast": 6188,
      "mand": 6189,
      "separ": 6190,
      "board": 6191,
      "related": 6192,
      "includes": 6193,
      "psych": 6194,
      "ele": 6195,
      "cells": 6196,
      "ident": 6197,
      "рабо": 6198,
      "Pr": 6199,
      "ptions": 6200,
      "message": 6201,
      "problems": 6202,
      "decide": 6203,
      "Smith": 6204,
      "econom": 6205,
      "pho": 6206,
      "consists": 6207,
      "clear": 6208,
      "boxes": 6209,
      "Question": 6210,
      "control": 6211,
      "bur": 6212,
      "phi": 6213,
      "mater": 6214,
      "affe": 6215,
      "TO": 6216,
      "ان": 6217,
      "havi": 6218,
      "akes": 6219,
      "tware": 6220,
      "venue": 6221,
      "bene": 6222,
      "page": 6223,
      "arith": 6224,
      "dies": 6225,
      "2023": 6226,
      "ready": 6227,
      "Answer": 6228,
      "dress": 6229,
      "спо": 6230,
      "prog": 6231,
      "mill": 6232,
      "fix": 6233,
      "dynam": 6234,
      "pairs": 6235,
      "constraints": 6236,
      "ug": 6237,
      "tor": 6238,
      "watch": 6239,
      "це": 6240,
      "ney": 6241,
      "party": 6242,
      "scre": 6243,
      "seem": 6244,
      "quanti": 6245,
      "regular": 6246,
      "apples": 6247,
      "With": 6248,
      "fish": 6249,
      "sup": 6250,
      "textbf": 6251,
      "ال": 6252,
      "ola": 6253,
      "lies": 6254,
      "чески": 6255,
      "JSON": 6256,
      "cultural": 6257,
      "country": 6258,
      "chapter": 6259,
      "76": 6260,
      "emo": 6261,
      "ца": 6262,
      "fies": 6263,
      "ring": 6264,
      "tour": 6265,
      "condu": 6266,
      "geq": 6267,
      "platform": 6268,
      "significant": 6269,
      "gest": 6270,
      "nh": 6271,
      "greater": 6272,
      "capacity": 6273,
      "`.": 6274,
      "cross": 6275,
      "sav": 6276,
      "asing": 6277,
      "conver": 6278,
      "perform": 6279,
      "groups": 6280,
      "named": 6281,
      "}.": 6282,
      "Col": 6283,
      "wise": 6284,
      "уро": 6285,
      "curity": 6286,
      "decided": 6287,
      "optimize": 6288,
      "мож": 6289,
      "void": 6290,
      "ba": 6291,
      "ij": 6292,
      "derive": 6293,
      "girl": 6294,
      "below": 6295,
      "making": 6296,
      "usion": 6297,
      "black": 6298,
      "scored": 6299,
      "edges": 6300,
      "similar": 6301,
      "behavi": 6302,
      "vertices": 6303,
      "inder": 6304,
      "advanced": 6305,
      "Imp": 6306,
      "concer": 6307,
      "programming": 6308,
      "explo": 6309,
      "atten": 6310,
      "changes": 6311,
      "development": 6312,
      "dimension": 6313,
      "98": 6314,
      "species": 6315,
      "starting": 6316,
      "ious": 6317,
      "interval": 6318,
      "рии": 6319,
      "occur": 6320,
      "think": 6321,
      "enh": 6322,
      "accur": 6323,
      "whether": 6324,
      "column": 6325,
      "mut": 6326,
      "rodu": 6327,
      "short": 6328,
      "items": 6329,
      "object": 6330,
      "}(": 6331,
      "secre": 6332,
      "factors": 6333,
      "$-": 6334,
      "incorpor": 6335,
      "tered": 6336,
      "market": 6337,
      "volume": 6338,
      "standard": 6339,
      "strategy": 6340,
      "query": 6341,
      "frame": 6342,
      "ancient": 6343,
      "scenari": 6344,
      "ave": 6345,
      "cra": 6346,
      "dou": 6347,
      "ker": 6348,
      "perfect": 6349,
      "^{-": 6350,
      "Qu": 6351,
      "bul": 6352,
      "ged": 6353,
      "gall": 6354,
      "stor": 6355,
      "track": 6356,
      "пол": 6357,
      "SQ": 6358,
      "sigma": 6359,
      "account": 6360,
      "interse": 6361,
      "described": 6362,
      "kg": 6363,
      "05": 6364,
      "paralle": 6365,
      "writing": 6366,
      "written": 6367,
      "software": 6368,
      "fine": 6369,
      "heart": 6370,
      "novel": 6371,
      "______": 6372,
      "document": 6373,
      "Guan": 6374,
      "Mar": 6375,
      "white": 6376,
      "вер": 6377,
      "bbie": 6378,
      "ae": 6379,
      "ka": 6380,
      "xmath": 6381,
      "ня": 6382,
      "modi": 6383,
      "Debbie": 6384,
      "previ": 6385,
      "belie": 6386,
      "poli": 6387,
      "}-": 6388,
      "ier": 6389,
      "nature": 6390,
      "stic": 6391,
      "vot": 6392,
      "unch": 6393,
      "Guanis": 6394,
      "though": 6395,
      "associ": 6396,
      "patterns": 6397,
      ")--(": 6398,
      "Wor": 6399,
      "fan": 6400,
      "sn": 6401,
      "report": 6402,
      "agra": 6403,
      "Char": 6404,
      "film": 6405,
      "rating": 6406,
      "abase": 6407,
      "coordinates": 6408,
      "concent": 6409,
      "hood": 6410,
      "determined": 6411,
      "}}{": 6412,
      "BC": 6413,
      "Bu": 6414,
      "gard": 6415,
      "По": 6416,
      "propor": 6417,
      "share": 6418,
      "coming": 6419,
      "47": 6420,
      "AD": 6421,
      "thus": 6422,
      "gets": 6423,
      "balls": 6424,
      "sition": 6425,
      "starts": 6426,
      "whose": 6427,
      "considering": 6428,
      "steps": 6429,
      "ror": 6430,
      "сво": 6431,
      "mary": 6432,
      "бу": 6433,
      "$\\{": 6434,
      "ION": 6435,
      "ml": 6436,
      "пи": 6437,
      "met": 6438,
      "food": 6439,
      "methods": 6440,
      "author": 6441,
      "free": 6442,
      "educ": 6443,
      "роят": 6444,
      "SQL": 6445,
      "Ab": 6446,
      "Fe": 6447,
      "cular": 6448,
      "selected": 6449,
      "pants": 6450,
      "mph": 6451,
      "night": 6452,
      "context": 6453,
      "dictionaries": 6454,
      "science": 6455,
      "cks": 6456,
      "ato": 6457,
      "spends": 6458,
      "syn": 6459,
      "grams": 6460,
      "kind": 6461,
      "veness": 6462,
      "via": 6463,
      ")$.": 6464,
      "IG": 6465,
      "fru": 6466,
      "pal": 6467,
      "conf": 6468,
      "shown": 6469,
      "AL": 6470,
      "rot": 6471,
      "bat": 6472,
      "ny": 6473,
      "сло": 6474,
      "mail": 6475,
      "vertex": 6476,
      "вероят": 6477,
      "AGE": 6478,
      "}\\)": 6479,
      "duration": 6480,
      "ision": 6481,
      "stream": 6482,
      "contri": 6483,
      "odd": 6484,
      "visit": 6485,
      "fication": 6486,
      "cards": 6487,
      "daily": 6488,
      "operation": 6489,
      "segment": 6490,
      "Develop": 6491,
      "Man": 6492,
      "revenue": 6493,
      "scene": 6494,
      "02": 6495,
      "loop": 6496,
      "workshop": 6497,
      "patients": 6498,
      "43": 6499,
      "UR": 6500,
      "Using": 6501,
      "formula": 6502,
      "lying": 6503,
      "decimal": 6504,
      "several": 6505,
      "sound": 6506,
      "Ser": 6507,
      "vation": 6508,
      "tili": 6509,
      "resources": 6510,
      "nodes": 6511,
      "augh": 6512,
      "65": 6513,
      "bound": 6514,
      "jor": 6515,
      "спе": 6516,
      "users": 6517,
      "anged": 6518,
      "features": 6519,
      "tree": 6520,
      "жа": 6521,
      "Andrey": 6522,
      "acti": 6523,
      "ili": 6524,
      "consum": 6525,
      "reng": 6526,
      "fall": 6527,
      "lambda": 6528,
      "wn": 6529,
      "Mah": 6530,
      "nal": 6531,
      "uple": 6532,
      "tries": 6533,
      "production": 6534,
      "как": 6535,
      "asks": 6536,
      "security": 6537,
      "moves": 6538,
      "percentage": 6539,
      "plot": 6540,
      "ше": 6541,
      "pers": 6542,
      "claim": 6543,
      "тео": 6544,
      "meric": 6545,
      "AI": 6546,
      "goals": 6547,
      "block": 6548,
      "utions": 6549,
      "New": 6550,
      "ctiveness": 6551,
      "role": 6552,
      "equil": 6553,
      "levels": 6554,
      "ww": 6555,
      "inches": 6556,
      "upon": 6557,
      "a_1": 6558,
      "atus": 6559,
      "aging": 6560,
      "operations": 6561,
      "geometric": 6562,
      "S_": 6563,
      "camp": 6564,
      "happ": 6565,
      "combination": 6566,
      "By": 6567,
      "favor": 6568,
      "pts": 6569,
      "six": 6570,
      "cies": 6571,
      "squares": 6572,
      "neigh": 6573,
      "cording": 6574,
      "marks": 6575,
      "blood": 6576,
      "72": 6577,
      "wide": 6578,
      "behavior": 6579,
      "CE": 6580,
      "ai": 6581,
      "cry": 6582,
      "amin": 6583,
      "general": 6584,
      "photo": 6585,
      "ML": 6586,
      "active": 6587,
      "database": 6588,
      "ateral": 6589,
      "INT": 6590,
      "parameters": 6591,
      "achieve": 6592,
      "won": 6593,
      "Provide": 6594,
      "lat": 6595,
      "sou": 6596,
      "oring": 6597,
      "axis": 6598,
      "iter": 6599,
      "dete": 6600,
      "compe": 6601,
      "effectiveness": 6602,
      "instance": 6603,
      "access": 6604,
      "образ": 6605,
      "reading": 6606,
      "sessions": 6607,
      "arithmetic": 6608,
      "97": 6609,
      "\"/>": 6610,
      "uation": 6611,
      "vities": 6612,
      "ological": 6613,
      "Mahina": 6614,
      "job": 6615,
      "lip": 6616,
      "cannot": 6617,
      "experience": 6618,
      "Now": 6619,
      "dle": 6620,
      "ке": 6621,
      "shad": 6622,
      "idden": 6623,
      "0000": 6624,
      "arti": 6625,
      "streng": 6626,
      "ческо": 6627,
      "hen": 6628,
      "xy": 6629,
      "die": 6630,
      "epis": 6631,
      "figure": 6632,
      "assuming": 6633,
      "band": 6634,
      "matic": 6635,
      "audi": 6636,
      "Per": 6637,
      "bon": 6638,
      "ping": 6639,
      "medi": 6640,
      "generate": 6641,
      "personal": 6642,
      "A_": 6643,
      "glo": 6644,
      "вля": 6645,
      "introdu": 6646,
      "green": 6647,
      "'.": 6648,
      "Americ": 6649,
      "Kids": 6650,
      "лу": 6651,
      "repe": 6652,
      "major": 6653,
      "promo": 6654,
      "llow": 6655,
      "studying": 6656,
      "+\\": 6657,
      "Ma": 6658,
      "gover": 6659,
      "taking": 6660,
      "sug": 6661,
      "custo": 6662,
      "dest": 6663,
      "feel": 6664,
      "course": 6665,
      "Ap": 6666,
      "Li": 6667,
      "ря": 6668,
      "abilities": 6669,
      "tran": 6670,
      "ное": 6671,
      ")|": 6672,
      ")^{": 6673,
      "source": 6674,
      "Pl": 6675,
      "ging": 6676,
      "pounds": 6677,
      "зы": 6678,
      "rema": 6679,
      "assi": 6680,
      "address": 6681,
      "ggest": 6682,
      "placed": 6683,
      ":**": 6684,
      "cen": 6685,
      "enter": 6686,
      "cog": 6687,
      "makes": 6688,
      "having": 6689,
      "ledge": 6690,
      "400": 6691,
      "ster": 6692,
      "lla": 6693,
      "trip": 6694,
      "ция": 6695,
      "shows": 6696,
      "strategies": 6697,
      "hib": 6698,
      "mit": 6699,
      "pet": 6700,
      "building": 6701,
      "AY": 6702,
      "hind": 6703,
      "inner": 6704,
      "воз": 6705,
      "letters": 6706,
      "appear": 6707,
      "English": 6708,
      "political": 6709,
      "41": 6710,
      "88": 6711,
      "eth": 6712,
      "ак": 6713,
      "took": 6714,
      "adjust": 6715,
      "ство": 6716,
      "finite": 6717,
      "host": 6718,
      "priv": 6719,
      "gamma": 6720,
      "scale": 6721,
      "2000": 6722,
      "service": 6723,
      "инте": 6724,
      "']": 6725,
      "IS": 6726,
      "sv": 6727,
      "ards": 6728,
      "quar": 6729,
      "enced": 6730,
      "57": 6731,
      "Dis": 6732,
      "necessary": 6733,
      "jac": 6734,
      "ule": 6735,
      "posed": 6736,
      "understanding": 6737,
      "garden": 6738,
      "Sar": 6739,
      "attemp": 6740,
      "engagement": 6741,
      "screen": 6742,
      "[]": 6743,
      "False": 6744,
      "cise": 6745,
      "too": 6746,
      "oud": 6747,
      "park": 6748,
      "feature": 6749,
      "largest": 6750,
      "father": 6751,
      "holds": 6752,
      "bum": 6753,
      "orts": 6754,
      "qual": 6755,
      "ables": 6756,
      "assign": 6757,
      "...],": 6758,
      "hypo": 6759,
      "Get": 6760,
      "Here": 6761,
      "uals": 6762,
      "yra": 6763,
      "сте": 6764,
      "рова": 6765,
      "whole": 6766,
      "finish": 6767,
      "uk": 6768,
      "сь": 6769,
      "tool": 6770,
      "activ": 6771,
      "transform": 6772,
      "versity": 6773,
      "Solve": 6774,
      "techniques": 6775,
      "Val": 6776,
      "elect": 6777,
      "dex": 6778,
      "challeng": 6779,
      "deli": 6780,
      "urn": 6781,
      "extract": 6782,
      "matches": 6783,
      "played": 6784,
      "better": 6785,
      "questions": 6786,
      "CT": 6787,
      "tuple": 6788,
      "uary": 6789,
      "tig": 6790,
      "added": 6791,
      "recent": 6792,
      "acts": 6793,
      "abstract": 6794,
      "going": 6795,
      "strength": 6796,
      "67": 6797,
      "}{\\": 6798,
      "video": 6799,
      "detailed": 6800,
      "Make": 6801,
      "hex": 6802,
      "minute": 6803,
      "ностей": 6804,
      "Di": 6805,
      "My": 6806,
      "Table": 6807,
      "reason": 6808,
      "love": 6809,
      "suggest": 6810,
      "artist": 6811,
      "mission": 6812,
      "description": 6813,
      "}+\\": 6814,
      "balance": 6815,
      "ES": 6816,
      "ped": 6817,
      "rain": 6818,
      "ury": 6819,
      "ная": 6820,
      "cdots": 6821,
      "effect": 6822,
      "musician": 6823,
      "risk": 6824,
      "activities": 6825,
      "exists": 6826,
      "tradition": 6827,
      "obtain": 6828,
      "All": 6829,
      "CH": 6830,
      "La": 6831,
      "tax": 6832,
      "finds": 6833,
      "received": 6834,
      ",\"": 6835,
      "Fin": 6836,
      "herself": 6837,
      "ING": 6838,
      "interested": 6839,
      "Or": 6840,
      "Set": 6841,
      "came": 6842,
      "penc": 6843,
      "xim": 6844,
      "ды": 6845,
      "mechan": 6846,
      "conse": 6847,
      "apan": 6848,
      "collected": 6849,
      "которы": 6850,
      "54": 6851,
      "AS": 6852,
      "IST": 6853,
      "variable": 6854,
      "media": 6855,
      "kilome": 6856,
      "Over": 6857,
      "ско": 6858,
      "request": 6859,
      "rectangular": 6860,
      "attend": 6861,
      "employe": 6862,
      "Gre": 6863,
      "Japan": 6864,
      "ture": 6865,
      "он": 6866,
      "remo": 6867,
      "decre": 6868,
      "until": 6869,
      "returns": 6870,
      "password": 6871,
      "protein": 6872,
      "parallel": 6873,
      "cub": 6874,
      "tan": 6875,
      "ators": 6876,
      "rown": 6877,
      "consecutive": 6878,
      "sun": 6879,
      "door": 6880,
      "express": 6881,
      "temperature": 6882,
      "String": 6883,
      "economic": 6884,
      "called": 6885,
      "previous": 6886,
      "remainder": 6887,
      ")(": 6888,
      ".”": 6889,
      "align": 6890,
      "lean": 6891,
      "symbol": 6892,
      "circ": 6893,
      "пере": 6894,
      "sections": 6895,
      "limit": 6896,
      "Ac": 6897,
      "arri": 6898,
      "systems": 6899,
      "distribut": 6900,
      "Er": 6901,
      "Script": 6902,
      "nel": 6903,
      "uel": 6904,
      "тов": 6905,
      "carry": 6906,
      "rectangle": 6907,
      "ctors": 6908,
      "tasked": 6909,
      "Could": 6910,
      "PM": 6911,
      "Par": 6912,
      "bri": 6913,
      "льзо": 6914,
      "pped": 6915,
      "Trans": 6916,
      "><": 6917,
      "UN": 6918,
      "aces": 6919,
      "cha": 6920,
      "shift": 6921,
      "Anal": 6922,
      "guide": 6923,
      "machine": 6924,
      "ior": 6925,
      "outs": 6926,
      "roll": 6927,
      "monthly": 6928,
      "5x": 6929,
      "}^": 6930,
      "rout": 6931,
      "idate": 6932,
      "hair": 6933,
      "нов": 6934,
      "sentences": 6935,
      "knowledge": 6936,
      "PAGE": 6937,
      "yet": 6938,
      "aling": 6939,
      "processing": 6940,
      "ox": 6941,
      "uter": 6942,
      "cial": 6943,
      "dom": 6944,
      "patient": 6945,
      "dark": 6946,
      "acci": 6947,
      "force": 6948,
      "taken": 6949,
      "running": 6950,
      "uro": 6951,
      "би": 6952,
      "arrange": 6953,
      "shape": 6954,
      "players": 6955,
      "volution": 6956,
      "щих": 6957,
      "argum": 6958,
      "nu": 6959,
      "enough": 6960,
      "movie": 6961,
      "aves": 6962,
      "Assum": 6963,
      "trees": 6964,
      "89": 6965,
      ",$": 6966,
      "utili": 6967,
      "alog": 6968,
      "prin": 6969,
      "180": 6970,
      "effects": 6971,
      "divisible": 6972,
      "scenario": 6973,
      "thres": 6974,
      "root": 6975,
      "overall": 6976,
      "render": 6977,
      "library": 6978,
      "Ph": 6979,
      "bility": 6980,
      "ln": 6981,
      "txt": 6982,
      "roots": 6983,
      "demon": 6984,
      "pect": 6985,
      "viol": 6986,
      "amples": 6987,
      "solving": 6988,
      "digital": 6989,
      "appears": 6990,
      "Au": 6991,
      "kers": 6992,
      "yield": 6993,
      "inno": 6994,
      "auto": 6995,
      "variance": 6996,
      "пред": 6997,
      "=>": 6998,
      "Sk": 6999,
      "Sco": 7000,
      "gain": 7001,
      "ition": 7002,
      "national": 7003,
      "una": 7004,
      "speak": 7005,
      "кон": 7006,
      "ologist": 7007,
      "constraint": 7008,
      "technology": 7009,
      "Eric": 7010,
      "May": 7011,
      "inside": 7012,
      "\\((": 7013,
      "simple": 7014,
      "dimensional": 7015,
      "cou": 7016,
      "зу": 7017,
      "according": 7018,
      "lock": 7019,
      "highest": 7020,
      "execu": 7021,
      "engineer": 7022,
      "associated": 7023,
      "Assuming": 7024,
      "batt": 7025,
      "false": 7026,
      "zed": 7027,
      "acc": 7028,
      "sec": 7029,
      "imm": 7030,
      "measure": 7031,
      "songs": 7032,
      "58": 7033,
      "CD": 7034,
      "TH": 7035,
      "fee": 7036,
      "initially": 7037,
      "treat": 7038,
      "connected": 7039,
      "аль": 7040,
      "critical": 7041,
      "solutions": 7042,
      "consci": 7043,
      "increased": 7044,
      ".$": 7045,
      "`[": 7046,
      "hard": 7047,
      "ked": 7048,
      "command": 7049,
      "mix": 7050,
      "describe": 7051,
      "annual": 7052,
      "страни": 7053,
      "customer": 7054,
      "4x": 7055,
      "Hel": 7056,
      "ined": 7057,
      "inputs": 7058,
      "note": 7059,
      "marbles": 7060,
      "runs": 7061,
      "59": 7062,
      "Ho": 7063,
      "bes": 7064,
      "spl": 7065,
      "y_": 7066,
      "window": 7067,
      "narr": 7068,
      "wall": 7069,
      "mother": 7070,
      "weigh": 7071,
      "route": 7072,
      "owner": 7073,
      "approxim": 7074,
      "individuals": 7075,
      "directly": 7076,
      "Sam": 7077,
      "sample": 7078,
      "zes": 7079,
      "гу": 7080,
      "фе": 7081,
      "ном": 7082,
      "important": 7083,
      "directed": 7084,
      "threshold": 7085,
      "gold": 7086,
      "rates": 7087,
      "currently": 7088,
      "fourth": 7089,
      "journey": 7090,
      "Player": 7091,
      "Ret": 7092,
      "egg": 7093,
      "tically": 7094,
      "tickets": 7095,
      "compre": 7096,
      "letter": 7097,
      "dedic": 7098,
      "thusi": 7099,
      ":<": 7100,
      "Fib": 7101,
      "hes": 7102,
      "tell": 7103,
      "^{\\": 7104,
      "=\"#": 7105,
      "dimensions": 7106,
      "Data": 7107,
      "Show": 7108,
      "ived": 7109,
      "enthusi": 7110,
      "press": 7111,
      "male": 7112,
      "counts": 7113,
      "ease": 7114,
      "lap": 7115,
      "zen": 7116,
      "igher": 7117,
      "never": 7118,
      "prepar": 7119,
      "voice": 7120,
      "52": 7121,
      "File": 7122,
      "tasks": 7123,
      "behind": 7124,
      "classi": 7125,
      "traditional": 7126,
      "ki": 7127,
      "tack": 7128,
      "reti": 7129,
      "stri": 7130,
      "complet": 7131,
      "overline": 7132,
      "coefficients": 7133,
      "03": 7134,
      "hidden": 7135,
      "pun": 7136,
      "thre": 7137,
      "gave": 7138,
      "countries": 7139,
      "Sat": 7140,
      "b_": 7141,
      "tly": 7142,
      "ür": 7143,
      "already": 7144,
      "near": 7145,
      "handling": 7146,
      "successful": 7147,
      "coefficient": 7148,
      "mass": 7149,
      "products": 7150,
      "reaches": 7151,
      "enhance": 7152,
      "went": 7153,
      "ос": 7154,
      "means": 7155,
      "shel": 7156,
      "ным": 7157,
      "partial": 7158,
      "client": 7159,
      "tuples": 7160,
      "]:": 7161,
      "\\,": 7162,
      "bill": 7163,
      "ix": 7164,
      "тре": 7165,
      "tou": 7166,
      "ules": 7167,
      "cture": 7168,
      "moment": 7169,
      "tage": 7170,
      "нима": 7171,
      "рав": 7172,
      "choose": 7173,
      "birth": 7174,
      "Sarah": 7175,
      "esta": 7176,
      "equip": 7177,
      "professor": 7178,
      "250": 7179,
      "51": 7180,
      "higher": 7181,
      "plants": 7182,
      "a_2": 7183,
      "communication": 7184,
      "organizing": 7185,
      "schedule": 7186,
      "Bob": 7187,
      "itch": 7188,
      "constru": 7189,
      "simul": 7190,
      "clude": 7191,
      "spired": 7192,
      "так": 7193,
      "location": 7194,
      "started": 7195,
      "neighbor": 7196,
      "Log": 7197,
      "Pa": 7198,
      "ather": 7199,
      "vance": 7200,
      "его": 7201,
      "statis": 7202,
      "road": 7203,
      "morning": 7204,
      "details": 7205,
      "discuss": 7206,
      "ктив": 7207,
      "$|": 7208,
      "Che": 7209,
      "fes": 7210,
      "hit": 7211,
      "или": 7212,
      "onacci": 7213,
      "stability": 7214,
      "independ": 7215,
      "gives": 7216,
      "https": 7217,
      "вероятностей": 7218,
      "Fibonacci": 7219,
      "email": 7220,
      "activity": 7221,
      "chain": 7222,
      "loves": 7223,
      "These": 7224,
      "longer": 7225,
      "cycle": 7226,
      "receive": 7227,
      "Two": 7228,
      "faces": 7229,
      "others": 7230,
      "ятель": 7231,
      "ਾਰ": 7232,
      "select": 7233,
      "lost": 7234,
      "parts": 7235,
      "Define": 7236,
      "discount": 7237,
      "][": 7238,
      "extra": 7239,
      "creating": 7240,
      "finding": 7241,
      "fail": 7242,
      "basket": 7243,
      ".)": 7244,
      "atory": 7245,
      "cars": 7246,
      "sequences": 7247,
      "dict": 7248,
      "places": 7249,
      "participants": 7250,
      "Monday": 7251,
      "06": 7252,
      "!\"": 7253,
      "ASS": 7254,
      "Dra": 7255,
      "ets": 7256,
      "income": 7257,
      "ватель": 7258,
      "records": 7259,
      "способ": 7260,
      "quantity": 7261,
      "demonstr": 7262,
      "На": 7263,
      "ison": 7264,
      "town": 7265,
      "plic": 7266,
      "Index": 7267,
      ")}{": 7268,
      "Did": 7269,
      "ın": 7270,
      "theory": 7271,
      "aster": 7272,
      "plus": 7273,
      "intensity": 7274,
      "feed": 7275,
      "avoid": 7276,
      "coordinate": 7277,
      "components": 7278,
      "fixed": 7279,
      "kilometers": 7280,
      "cam": 7281,
      "ened": 7282,
      "alone": 7283,
      "depart": 7284,
      "fort": 7285,
      "adjac": 7286,
      "build": 7287,
      "inste": 7288,
      "numerical": 7289,
      "skills": 7290,
      "sus": 7291,
      "album": 7292,
      "rop": 7293,
      "construct": 7294,
      "loy": 7295,
      "usive": 7296,
      "particularly": 7297,
      "cakes": 7298,
      "eat": 7299,
      "их": 7300,
      "acter": 7301,
      "interaction": 7302,
      "denot": 7303,
      "appropri": 7304,
      "scient": 7305,
      "observed": 7306,
      "issues": 7307,
      "hr": 7308,
      "diffic": 7309,
      "filter": 7310,
      "Alice": 7311,
      "icial": 7312,
      "grand": 7313,
      "profession": 7314,
      "Further": 7315,
      "big": 7316,
      "inc": 7317,
      "intric": 7318,
      "\\)-": 7319,
      "rap": 7320,
      "emer": 7321,
      "popular": 7322,
      "JavaScript": 7323,
      "Su": 7324,
      "pite": 7325,
      "resol": 7326,
      "compos": 7327,
      "few": 7328,
      "bring": 7329,
      "setting": 7330,
      "visual": 7331,
      "osen": 7332,
      "lengths": 7333,
      "circles": 7334,
      "satisfies": 7335,
      "pencils": 7336,
      ")]": 7337,
      "None": 7338,
      "_j": 7339,
      "tang": 7340,
      "вет": 7341,
      "ша": 7342,
      "inves": 7343,
      "suit": 7344,
      "ными": 7345,
      "hypothe": 7346,
      "Ger": 7347,
      "ime": 7348,
      "все": 7349,
      "theore": 7350,
      "online": 7351,
      "asc": 7352,
      "зада": 7353,
      "depth": 7354,
      "Back": 7355,
      "лен": 7356,
      "Their": 7357,
      "sole": 7358,
      "computer": 7359,
      "forms": 7360,
      "greatest": 7361,
      "Sun": 7362,
      "\\}$": 7363,
      "itself": 7364,
      "exer": 7365,
      "clean": 7366,
      "respect": 7367,
      "designed": 7368,
      "Model": 7369,
      "learn": 7370,
      "minimize": 7371,
      "purchase": 7372,
      "teacher": 7373,
      "<=": 7374,
      "rup": 7375,
      "ком": 7376,
      "specified": 7377,
      "errors": 7378,
      "Team": 7379,
      "instead": 7380,
      "04": 7381,
      "Del": 7382,
      "ju": 7383,
      "develo": 7384,
      "rage": 7385,
      "abric": 7386,
      "presence": 7387,
      "odes": 7388,
      "encry": 7389,
      "variables": 7390,
      "Gener": 7391,
      "qui": 7392,
      "spect": 7393,
      "gather": 7394,
      "Design": 7395,
      "World": 7396,
      "CUT": 7397,
      "vil": 7398,
      "vill": 7399,
      "worth": 7400,
      "phone": 7401,
      "ков": 7402,
      "perimeter": 7403,
      "rug": 7404,
      "kilo": 7405,
      "ITY": 7406,
      "micro": 7407,
      "NA": 7408,
      "Tit": 7409,
      "Yes": 7410,
      "_y": 7411,
      "ests": 7412,
      "little": 7413,
      "narrative": 7414,
      "gt": 7415,
      "jus": 7416,
      "why": 7417,
      "vert": 7418,
      "projects": 7419,
      "pret": 7420,
      "planation": 7421,
      "install": 7422,
      "Box": 7423,
      "aughter": 7424,
      "Key": 7425,
      "af": 7426,
      "mme": 7427,
      "nav": 7428,
      "ret": 7429,
      "itation": 7430,
      "bey": 7431,
      "boys": 7432,
      "ago": 7433,
      "Cont": 7434,
      "predict": 7435,
      "теории": 7436,
      ">>": 7437,
      "pmatrix": 7438,
      "pick": 7439,
      "vices": 7440,
      "dian": 7441,
      "adding": 7442,
      "images": 7443,
      "govern": 7444,
      "establ": 7445,
      ",-": 7446,
      "Brit": 7447,
      "null": 7448,
      "pul": 7449,
      "zy": 7450,
      "сс": 7451,
      "igen": 7452,
      "filled": 7453,
      "ствен": 7454,
      "bags": 7455,
      "comprehen": 7456,
      "86": 7457,
      "%.": 7458,
      "offic": 7459,
      "offer": 7460,
      "deg": 7461,
      "anger": 7462,
      "transl": 7463,
      "atives": 7464,
      "article": 7465,
      "образо": 7466,
      "C_": 7467,
      "card": 7468,
      "tall": 7469,
      "ali": 7470,
      "devi": 7471,
      "lia": 7472,
      "ips": 7473,
      "physical": 7474,
      "Da": 7475,
      "aur": 7476,
      "ctivity": 7477,
      "’,": 7478,
      "chosen": 7479,
      "prove": 7480,
      "assist": 7481,
      "том": 7482,
      "concentration": 7483,
      "shadow": 7484,
      "mol": 7485,
      "enge": 7486,
      "sian": 7487,
      "positions": 7488,
      "AND": 7489,
      "4Kids": 7490,
      "compared": 7491,
      "drawn": 7492,
      "depend": 7493,
      "property": 7494,
      "psychic": 7495,
      "palind": 7496,
      "84": 7497,
      "bs": 7498,
      "altern": 7499,
      "exper": 7500,
      "ament": 7501,
      "effective": 7502,
      "brother": 7503,
      "spirit": 7504,
      "articles": 7505,
      "Japanese": 7506,
      "investig": 7507,
      "Min": 7508,
      "Pe": 7509,
      "nes": 7510,
      "iss": 7511,
      "While": 7512,
      "something": 7513,
      "planet": 7514,
      "circum": 7515,
      "considered": 7516,
      "organization": 7517,
      "continuous": 7518,
      "environment": 7519,
      "competi": 7520,
      "Satur": 7521,
      "{}": 7522,
      "ления": 7523,
      "recomm": 7524,
      "device": 7525,
      "dialog": 7526,
      "tables": 7527,
      "ango": 7528,
      "inten": 7529,
      "мате": 7530,
      "Entry": 7531,
      "connection": 7532,
      "calculated": 7533,
      "sorted": 7534,
      "92": 7535,
      "Sp": 7536,
      "ем": 7537,
      "stay": 7538,
      "status": 7539,
      "dot": 7540,
      "entity": 7541,
      "entities": 7542,
      "trying": 7543,
      "increases": 7544,
      "correctly": 7545,
      "distributed": 7546,
      "beyond": 7547,
      "Age": 7548,
      "_name": 7549,
      "older": 7550,
      "2024": 7551,
      "vision": 7552,
      "Address": 7553,
      "ENT": 7554,
      "investment": 7555,
      "IL": 7556,
      "brac": 7557,
      "ode": 7558,
      "пы": 7559,
      "ante": 7560,
      "coins": 7561,
      "hase": 7562,
      "passes": 7563,
      "files": 7564,
      "umber": 7565,
      "rare": 7566,
      "smaller": 7567,
      "favorite": 7568,
      "rm": 7569,
      "regul": 7570,
      "efficient": 7571,
      "пер": 7572,
      "writer": 7573,
      "close": 7574,
      "reflect": 7575,
      "practice": 7576,
      "87": 7577,
      "Vk": 7578,
      "Wong": 7579,
      "hall": 7580,
      "dient": 7581,
      "mov": 7582,
      "living": 7583,
      "produce": 7584,
      "enses": 7585,
      "guar": 7586,
      "ству": 7587,
      "Prof": 7588,
      "material": 7589,
      "svg": 7590,
      "600": 7591,
      "])": 7592,
      "IB": 7593,
      "Ke": 7594,
      "gent": 7595,
      "vit": 7596,
      "demand": 7597,
      "cities": 7598,
      "Info": 7599,
      "ront": 7600,
      "randomly": 7601,
      "System": 7602,
      "\"\"\"": 7603,
      "cru": 7604,
      "deal": 7605,
      "manager": 7606,
      "intersection": 7607,
      "ibri": 7608,
      "ANT": 7609,
      "football": 7610,
      "=\\": 7611,
      "City": 7612,
      "Count": 7613,
      "jum": 7614,
      "ening": 7615,
      "arm": 7616,
      "gradu": 7617,
      "Tets": 7618,
      "parameter": 7619,
      "website": 7620,
      "private": 7621,
      "From": 7622,
      "hab": 7623,
      "las": 7624,
      "wit": 7625,
      "ਰਿ": 7626,
      "itor": 7627,
      "conce": 7628,
      "policy": 7629,
      "significance": 7630,
      "Coun": 7631,
      "EX": 7632,
      "Jan": 7633,
      "P_": 7634,
      "density": 7635,
      "gri": 7636,
      "accept": 7637,
      "shir": 7638,
      "cription": 7639,
      "owned": 7640,
      "Also": 7641,
      "испо": 7642,
      "joy": 7643,
      "stead": 7644,
      "BD": 7645,
      "weights": 7646,
      "стви": 7647,
      "Saturday": 7648,
      "OK": 7649,
      "safe": 7650,
      "cycl": 7651,
      "cups": 7652,
      "accuracy": 7653,
      "conscious": 7654,
      "inspired": 7655,
      "ony": 7656,
      "encies": 7657,
      "isher": 7658,
      "diagon": 7659,
      "aged": 7660,
      "нали": 7661,
      "symme": 7662,
      "pping": 7663,
      "locks": 7664,
      "HTML": 7665,
      "+=": 7666,
      ")}": 7667,
      "ET": 7668,
      "Ste": 7669,
      "lab": 7670,
      "belong": 7671,
      "pear": 7672,
      "oneous": 7673,
      "upper": 7674,
      "ternal": 7675,
      "stock": 7676,
      "Attack": 7677,
      "suppl": 7678,
      "LAB": 7679,
      "ano": 7680,
      "forward": 7681,
      "brand": 7682,
      "playing": 7683,
      "surve": 7684,
      "collabor": 7685,
      "2n": 7686,
      "|---|---|---|---|": 7687,
      "\\\\(": 7688,
      "var": 7689,
      "tore": 7690,
      "itary": 7691,
      "rais": 7692,
      "women": 7693,
      "created": 7694,
      "ellip": 7695,
      "sister": 7696,
      "properties": 7697,
      "direction": 7698,
      "81": 7699,
      "Image": 7700,
      "fast": 7701,
      "jango": 7702,
      "stage": 7703,
      "compute": 7704,
      "parab": 7705,
      "sphere": 7706,
      "interactions": 7707,
      "triangles": 7708,
      "save": 7709,
      "cube": 7710,
      "Ensure": 7711,
      "studies": 7712,
      "proportional": 7713,
      "High": 7714,
      "Sch": 7715,
      "evid": 7716,
      "eigen": 7717,
      "tos": 7718,
      "buys": 7719,
      "himself": 7720,
      "involving": 7721,
      "record": 7722,
      "equilibri": 7723,
      "eggs": 7724,
      "EF": 7725,
      "Grou": 7726,
      "stress": 7727,
      "seas": 7728,
      "shared": 7729,
      "ague": 7730,
      "ства": 7731,
      "increasing": 7732,
      "legal": 7733,
      "receives": 7734,
      "cogni": 7735,
      "53": 7736,
      "Mic": 7737,
      "dia": 7738,
      "quick": 7739,
      "ulting": 7740,
      "oppos": 7741,
      "harmon": 7742,
      "slant": 7743,
      "customers": 7744,
      "вне": 7745,
      "ща": 7746,
      "confl": 7747,
      "/>-": 7748,
      "optimizing": 7749,
      "located": 7750,
      "airs": 7751,
      "Symbol": 7752,
      "Am": 7753,
      "Cy": 7754,
      "cis": 7755,
      "sle": 7756,
      "ха": 7757,
      "refer": 7758,
      "version": 7759,
      "mob": 7760,
      "anging": 7761,
      "wood": 7762,
      "equals": 7763,
      "ATOR": 7764,
      "rounded": 7765,
      ";,": 7766,
      "Nor": 7767,
      "infe": 7768,
      "вед": 7769,
      "measures": 7770,
      "challenges": 7771,
      "800": 7772,
      "fon": 7773,
      "json": 7774,
      "smo": 7775,
      "пу": 7776,
      "reference": 7777,
      "ori": 7778,
      "phr": 7779,
      "curve": 7780,
      "subject": 7781,
      "Produ": 7782,
      "Compute": 7783,
      "straight": 7784,
      "double": 7785,
      "SO": 7786,
      "bd": 7787,
      "cher": 7788,
      "manage": 7789,
      "disease": 7790,
      "hope": 7791,
      "journal": 7792,
      "challenge": 7793,
      "outside": 7794,
      "equilibrium": 7795,
      "_to": 7796,
      "für": 7797,
      "eds": 7798,
      "pool": 7799,
      "club": 7800,
      "999": 7801,
      "sugges": 7802,
      "Bl": 7803,
      "neur": 7804,
      "dog": 7805,
      "etc": 7806,
      "вания": 7807,
      "measured": 7808,
      "ную": 7809,
      "girls": 7810,
      "craft": 7811,
      "contribu": 7812,
      "63": 7813,
      "zo": 7814,
      "zer": 7815,
      "moder": 7816,
      "option": 7817,
      "equally": 7818,
      "facts": 7819,
      "infty": 7820,
      "94": 7821,
      "SV": 7822,
      "awa": 7823,
      "кла": 7824,
      "asp": 7825,
      "Reg": 7826,
      "graphy": 7827,
      "\");": 7828,
      "Rs": 7829,
      "jud": 7830,
      "rum": 7831,
      "olar": 7832,
      "map": 7833,
      "expon": 7834,
      "grade": 7835,
      "colors": 7836,
      "relative": 7837,
      "circular": 7838,
      "covered": 7839,
      "truth": 7840,
      "emotional": 7841,
      "Ava": 7842,
      "Der": 7843,
      "Ver": 7844,
      "YY": 7845,
      "np": 7846,
      "none": 7847,
      "iden": 7848,
      "admin": 7849,
      "entific": 7850,
      "implic": 7851,
      "rent": 7852,
      "doesn": 7853,
      "regard": 7854,
      "expressed": 7855,
      "дол": 7856,
      "END": 7857,
      "developing": 7858,
      "evaluate": 7859,
      "dynamics": 7860,
      "obtained": 7861,
      ")\\": 7862,
      "Ear": 7863,
      "Ob": 7864,
      "Options": 7865,
      "pens": 7866,
      "become": 7867,
      "excl": 7868,
      "representation": 7869,
      "leader": 7870,
      "master": 7871,
      "GEN": 7872,
      "cx": 7873,
      "vant": 7874,
      "areas": 7875,
      "iring": 7876,
      "compo": 7877,
      "mathrm": 7878,
      "stop": 7879,
      "built": 7880,
      "discovered": 7881,
      "fruit": 7882,
      "centime": 7883,
      "CON": 7884,
      "yes": 7885,
      "org": 7886,
      "rome": 7887,
      "ansion": 7888,
      "ything": 7889,
      "financi": 7890,
      "transformation": 7891,
      "дан": 7892,
      "bio": 7893,
      "Post": 7894,
      "sensi": 7895,
      "93": 7896,
      "Emp": 7897,
      "Эд": 7898,
      "roy": 7899,
      "ications": 7900,
      "aps": 7901,
      "goes": 7902,
      "obje": 7903,
      "тия": 7904,
      "деятель": 7905,
      "drop": 7906,
      "!”": 7907,
      "Sim": 7908,
      "bow": 7909,
      "lor": 7910,
      "reve": 7911,
      "advance": 7912,
      "gallons": 7913,
      "07": 7914,
      "hous": 7915,
      "pic": 7916,
      "push": 7917,
      "клю": 7918,
      "archite": 7919,
      "menu": 7920,
      "million": 7921,
      ",”": 7922,
      "Fri": 7923,
      "_list": 7924,
      "cd": 7925,
      "tac": 7926,
      "proje": 7927,
      "usage": 7928,
      "exc": 7929,
      "server": 7930,
      "news": 7931,
      "distric": 7932,
      "ться": 7933,
      "fair": 7934,
      "formulate": 7935,
      "stickers": 7936,
      "щихся": 7937,
      "scientist": 7938,
      "SC": 7939,
      "ление": 7940,
      "dead": 7941,
      "expansion": 7942,
      "wr": 7943,
      "anced": 7944,
      "assess": 7945,
      "decision": 7946,
      "rooms": 7947,
      "Personality": 7948,
      "IGHT": 7949,
      "cryp": 7950,
      "Value": 7951,
      "expert": 7952,
      "Rha": 7953,
      "xi": 7954,
      "astic": 7955,
      "рез": 7956,
      "regression": 7957,
      "passing": 7958,
      "reduce": 7959,
      "equipment": 7960,
      "Rhaen": 7961,
      "Cor": 7962,
      "ote": 7963,
      "вре": 7964,
      "iding": 7965,
      "management": 7966,
      "iew": 7967,
      "логи": 7968,
      "maximizes": 7969,
      "yellow": 7970,
      "allocation": 7971,
      "allocate": 7972,
      "computational": 7973,
      "Ben": 7974,
      "CA": 7975,
      "later": 7976,
      "ita": 7977,
      "moving": 7978,
      "exten": 7979,
      "traffic": 7980,
      "Construct": 7981,
      "ходи": 7982,
      "progression": 7983,
      "American": 7984,
      "retired": 7985,
      "professional": 7986,
      "ek": 7987,
      "ер": 7988,
      "teen": 7989,
      "riter": 7990,
      "apple": 7991,
      "voc": 7992,
      "views": 7993,
      "wave": 7994,
      "sense": 7995,
      "candidate": 7996,
      "intricate": 7997,
      "degree": 7998,
      "Our": 7999,
      "UL": 8000,
      "View": 8001,
      "nest": 8002,
      "ਨਾ": 8003,
      "today": 8004,
      "resp": 8005,
      "exhib": 8006,
      "izer": 8007,
      "spaces": 8008,
      "paid": 8009,
      "firm": 8010,
      "reads": 8011,
      "erroneous": 8012,
      "looking": 8013,
      "http": 8014,
      "incorporate": 8015,
      "split": 8016,
      "MM": 8017,
      "aa": 8018,
      "hop": 8019,
      "wers": 8020,
      "contr": 8021,
      "perce": 8022,
      "larger": 8023,
      "fying": 8024,
      "**:": 8025,
      "scientific": 8026,
      "appropriate": 8027,
      "Furthermore": 8028,
      "developer": 8029,
      "Mark": 8030,
      "sche": 8031,
      "x_i": 8032,
      "ert": 8033,
      "illustr": 8034,
      "deriv": 8035,
      "classes": 8036,
      "multipl": 8037,
      "hyper": 8038,
      "career": 8039,
      "meeting": 8040,
      "treatment": 8041,
      "Its": 8042,
      "PE": 8043,
      "fre": 8044,
      "ials": 8045,
      "java": 8046,
      "ners": 8047,
      "tles": 8048,
      "Ча": 8049,
      "entry": 8050,
      "boy": 8051,
      "sports": 8052,
      "continues": 8053,
      "преде": 8054,
      "government": 8055,
      "PH": 8056,
      "Sent": 8057,
      "Some": 8058,
      "aks": 8059,
      "phase": 8060,
      "tank": 8061,
      "vary": 8062,
      "чис": 8063,
      "relie": 8064,
      "stal": 8065,
      "sells": 8066,
      "button": 8067,
      "лько": 8068,
      "ению": 8069,
      "лове": 8070,
      "mention": 8071,
      "binary": 8072,
      "Compon": 8073,
      "selling": 8074,
      "preparing": 8075,
      "OM": 8076,
      "aus": 8077,
      "fabric": 8078,
      "lst": 8079,
      "onic": 8080,
      "former": 8081,
      "fewer": 8082,
      "international": 8083,
      "subsequ": 8084,
      "passion": 8085,
      "farm": 8086,
      "movies": 8087,
      "bak": 8088,
      "zi": 8089,
      "цен": 8090,
      "resulting": 8091,
      "hash": 8092,
      "clin": 8093,
      "encoun": 8094,
      "agraph": 8095,
      "68": 8096,
      "Tom": 8097,
      "_data": 8098,
      "fro": 8099,
      "lights": 8100,
      "sess": 8101,
      "фи": 8102,
      "ince": 8103,
      "prop": 8104,
      "agree": 8105,
      "a_i": 8106,
      "Code": 8107,
      "join": 8108,
      "environmental": 8109,
      "financial": 8110,
      "LO": 8111,
      "spo": 8112,
      "tival": 8113,
      "coding": 8114,
      "bel": 8115,
      "proced": 8116,
      "neural": 8117,
      "ticed": 8118,
      "integral": 8119,
      "Express": 8120,
      "commit": 8121,
      "consisting": 8122,
      "Return": 8123,
      "PO": 8124,
      "fu": 8125,
      "pes": 8126,
      "rh": 8127,
      "мет": 8128,
      "vectors": 8129,
      "ried": 8130,
      "apart": 8131,
      "prevent": 8132,
      "saf": 8133,
      "attack": 8134,
      "efficiently": 8135,
      "humanity": 8136,
      "regions": 8137,
      "Sunday": 8138,
      "deviation": 8139,
      "5C": 8140,
      "NO": 8141,
      "bx": 8142,
      "чет": 8143,
      "island": 8144,
      "acce": 8145,
      "stain": 8146,
      "сту": 8147,
      "employ": 8148,
      "parent": 8149,
      "ISTANT": 8150,
      "74": 8151,
      "Cha": 8152,
      "Tues": 8153,
      "tren": 8154,
      "và": 8155,
      "Это": 8156,
      "در": 8157,
      "isol": 8158,
      "tele": 8159,
      "industr": 8160,
      "offers": 8161,
      "грам": 8162,
      "Appear": 8163,
      "carrying": 8164,
      "evidence": 8165,
      "Derive": 8166,
      "->": 8167,
      "Not": 8168,
      "fif": 8169,
      "sens": 8170,
      "ubl": 8171,
      "vic": 8172,
      "wat": 8173,
      "ades": 8174,
      "bust": 8175,
      "solute": 8176,
      "вание": 8177,
      "identified": 8178,
      "учащихся": 8179,
      "computing": 8180,
      "industry": 8181,
      "91": 8182,
      "дру": 8183,
      "жиз": 8184,
      "тра": 8185,
      "ار": 8186,
      "retri": 8187,
      "adap": 8188,
      "That": 8189,
      "ений": 8190,
      "ventory": 8191,
      "horiz": 8192,
      "negotiation": 8193,
      "cket": 8194,
      "drug": 8195,
      "mir": 8196,
      "лы": 8197,
      "три": 8198,
      "anth": 8199,
      "really": 8200,
      "oranges": 8201,
      "followed": 8202,
      "central": 8203,
      "alphabe": 8204,
      "разви": 8205,
      "provides": 8206,
      "чтобы": 8207,
      "walk": 8208,
      "component": 8209,
      "independent": 8210,
      "Oli": 8211,
      "_t": 8212,
      "hu": 8213,
      "pies": 8214,
      "пла": 8215,
      "held": 8216,
      "ounces": 8217,
      "highly": 8218,
      "teams": 8219,
      "relevant": 8220,
      "Abstract": 8221,
      "enthusiast": 8222,
      "ASSISTANT": 8223,
      "theoretical": 8224,
      "centimeters": 8225,
      "seen": 8226,
      "\\)?": 8227,
      "irst": 8228,
      "nom": 8229,
      "domin": 8230,
      "specifically": 8231,
      "designer": 8232,
      "More": 8233,
      "beginning": 8234,
      "arranged": 8235,
      "aware": 8236,
      "candy": 8237,
      "soft": 8238,
      "страница": 8239,
      "dedicated": 8240,
      "palindrome": 8241,
      "Часть": 8242,
      "Component": 8243,
      "Time": 8244,
      "dream": 8245,
      "release": 8246,
      "stack": 8247,
      "icular": 8248,
      "manip": 8249,
      "dates": 8250,
      "culture": 8251,
      "pain": 8252,
      "240": 8253,
      "curi": 8254,
      "glass": 8255,
      "columns": 8256,
      "explore": 8257,
      "global": 8258,
      "transition": 8259,
      "tangent": 8260,
      "comprehensive": 8261,
      "SymbolEntry": 8262,
      "Appearance": 8263,
      "^\\": 8264,
      "Lu": 8265,
      "bly": 8266,
      "brown": 8267,
      "rank": 8268,
      "reci": 8269,
      "wel": 8270,
      "calories": 8271,
      "selves": 8272,
      "lessly": 8273,
      "polygon": 8274,
      "developed": 8275,
      "category": 8276,
      "implications": 8277,
      "aign": 8278,
      "blocks": 8279,
      "nur": 8280,
      "uya": 8281,
      "сси": 8282,
      "ination": 8283,
      "sea": 8284,
      "shap": 8285,
      "live": 8286,
      "compass": 8287,
      "delta": 8288,
      "guard": 8289,
      "United": 8290,
      "audience": 8291,
      "reasoning": 8292,
      "Error": 8293,
      "Har": 8294,
      "ws": 8295,
      "рь": 8296,
      "اي": 8297,
      "concept": 8298,
      "turned": 8299,
      "prices": 8300,
      "transport": 8301,
      "fire": 8302,
      "тая": 8303,
      "],[": 8304,
      "respective": 8305,
      "refle": 8306,
      "aims": 8307,
      "sites": 8308,
      "reduced": 8309,
      "USER": 8310,
      "episodes": 8311,
      "110": 8312,
      "Game": 8313,
      "eli": 8314,
      "attri": 8315,
      "death": 8316,
      "pects": 8317,
      "поз": 8318,
      "вой": 8319,
      "parents": 8320,
      "API": 8321,
      "education": 8322,
      "attempts": 8323,
      "navig": 8324,
      "Professor": 8325,
      "safety": 8326,
      "09": 8327,
      "ov": 8328,
      "remove": 8329,
      "mel": 8330,
      "ads": 8331,
      "Inter": 8332,
      "options": 8333,
      "phil": 8334,
      "fault": 8335,
      "allocated": 8336,
      "existence": 8337,
      "lui": 8338,
      "issue": 8339,
      "intersect": 8340,
      "`:": 8341,
      "done": 8342,
      "dfrac": 8343,
      "wis": 8344,
      "ан": 8345,
      "్ర": 8346,
      "infinite": 8347,
      "ley": 8348,
      "entre": 8349,
      "update": 8350,
      "вает": 8351,
      "prefer": 8352,
      "transaction": 8353,
      "boolean": 8354,
      "organize": 8355,
      "Emma": 8356,
      "attende": 8357,
      "workshops": 8358,
      "Ag": 8359,
      "Gender": 8360,
      "Text": 8361,
      "fits": 8362,
      "thought": 8363,
      "intr": 8364,
      "station": 8365,
      "unt": 8366,
      "config": 8367,
      "istance": 8368,
      "ountain": 8369,
      "preser": 8370,
      "trade": 8371,
      "icians": 8372,
      "groupe": 8373,
      "memory": 8374,
      "materials": 8375,
      "festival": 8376,
      "kilograms": 8377,
      "Up": 8378,
      "brid": 8379,
      "cc": 8380,
      "gli": 8381,
      "nt": 8382,
      "oso": 8383,
      "scri": 8384,
      "iny": 8385,
      "esults": 8386,
      "fund": 8387,
      "paragraph": 8388,
      "drive": 8389,
      "genetic": 8390,
      "Earth": 8391,
      "horizon": 8392,
      "||": 8393,
      "ium": 8394,
      "nis": 8395,
      "tane": 8396,
      "ên": 8397,
      "ని": 8398,
      "stories": 8399,
      "rather": 8400,
      "desc": 8401,
      "plays": 8402,
      "produced": 8403,
      "дей": 8404,
      "capital": 8405,
      "orders": 8406,
      "importance": 8407,
      "fields": 8408,
      "www": 8409,
      "touch": 8410,
      "opposite": 8411,
      "3D": 8412,
      "62": 8413,
      "ben": 8414,
      "daughter": 8415,
      "x_1": 8416,
      "rier": 8417,
      "aving": 8418,
      "каза": 8419,
      "asked": 8420,
      "village": 8421,
      "83": 8422,
      "];": 8423,
      "IP": 8424,
      "Pol": 8425,
      "Sum": 8426,
      "hon": 8427,
      "ji": 8428,
      "сли": 8429,
      "resource": 8430,
      "early": 8431,
      "differences": 8432,
      "fier": 8433,
      "челове": 8434,
      "meaning": 8435,
      "flowers": 8436,
      "pendicular": 8437,
      "intersects": 8438,
      "campaign": 8439,
      "};": 8440,
      "CW": 8441,
      "Mat": 8442,
      "gment": 8443,
      "grace": 8444,
      "vast": 8445,
      "thin": 8446,
      "ino": 8447,
      "seven": 8448,
      "perpendicular": 8449,
      "emb": 8450,
      "chem": 8451,
      "damage": 8452,
      ")\\),": 8453,
      "$\",": 8454,
      "Esis": 8455,
      "TV": 8456,
      "aut": 8457,
      "df": 8458,
      "omp": 8459,
      "вто": 8460,
      "ющи": 8461,
      "ాల": 8462,
      "req": 8463,
      "\\))": 8464,
      "ably": 8465,
      "pressure": 8466,
      "presented": 8467,
      "choice": 8468,
      "broad": 8469,
      "messages": 8470,
      "categor": 8471,
      "separate": 8472,
      "tools": 8473,
      "secure": 8474,
      "identical": 8475,
      "GENEsis": 8476,
      "\"],": 8477,
      "Ge": 8478,
      "Mor": 8479,
      "Pre": 8480,
      "Tim": 8481,
      "rist": 8482,
      "stance": 8483,
      "finally": 8484,
      "capable": 8485,
      "office": 8486,
      "powerful": 8487,
      "continue": 8488,
      "situation": 8489,
      "employees": 8490,
      "wrong": 8491,
      "crypto": 8492,
      "Tuesday": 8493,
      "Pri": 8494,
      "Rus": 8495,
      "Sma": 8496,
      "Wed": 8497,
      "_k": 8498,
      "rational": 8499,
      "static": 8500,
      "parties": 8501,
      "worked": 8502,
      "(\"$": 8503,
      "generated": 8504,
      "skin": 8505,
      "bottom": 8506,
      "ABCD": 8507,
      "chapters": 8508,
      "следо": 8509,
      "denoted": 8510,
      "Group": 8511,
      "Every": 8512,
      "Yet": 8513,
      "_date": 8514,
      "fate": 8515,
      "gas": 8516,
      "ба": 8517,
      "чной": 8518,
      "becomes": 8519,
      "exchange": 8520,
      "suff": 8521,
      "notices": 8522,
      "oppon": 8523,
      "derived": 8524,
      "logistic": 8525,
      "velocity": 8526,
      "State": 8527,
      "shoot": 8528,
      "adjacent": 8529,
      "Rhaenyra": 8530,
      "Smaug": 8531,
      "Ра": 8532,
      "things": 8533,
      "ower": 8534,
      "ulty": 8535,
      "html": 8536,
      "Include": 8537,
      "Device": 8538,
      "longest": 8539,
      "nament": 8540,
      "tempor": 8541,
      "walking": 8542,
      "hexagon": 8543,
      "parabola": 8544,
      "2t": 8545,
      "Cur": 8546,
      "Fra": 8547,
      "\\}$,": 8548,
      "nic": 8549,
      "verify": 8550,
      "ada": 8551,
      "spread": 8552,
      "phy": 8553,
      "otherwise": 8554,
      "лож": 8555,
      "Add": 8556,
      "дер": 8557,
      "maintaining": 8558,
      "recently": 8559,
      "threat": 8560,
      "officer": 8561,
      "LABOR": 8562,
      "Mob": 8563,
      "чение": 8564,
      "std": 8565,
      "marke": 8566,
      "athy": 8567,
      "template": 8568,
      "define": 8569,
      "restaur": 8570,
      "statement": 8571,
      "leading": 8572,
      "seems": 8573,
      "Analy": 8574,
      "ATORY": 8575,
      "retrie": 8576,
      "69": 8577,
      "Fig": 8578,
      "gar": 8579,
      "labor": 8580,
      "pher": 8581,
      "pict": 8582,
      "sand": 8583,
      "x0": 8584,
      "она": 8585,
      "эк": 8586,
      "”,": 8587,
      "2019": 8588,
      "periodic": 8589,
      "Hello": 8590,
      "completed": 8591,
      "LABORATORY": 8592,
      "79": 8593,
      "=$": 8594,
      "MA": 8595,
      "Mi": 8596,
      "criter": 8597,
      "dan": 8598,
      "pas": 8599,
      "tons": 8600,
      "ware": 8601,
      "x_2": 8602,
      "ini": 8603,
      "ena": 8604,
      "raise": 8605,
      "loved": 8606,
      "lives": 8607,
      "solar": 8608,
      "grees": 8609,
      "military": 8610,
      "structures": 8611,
      "involved": 8612,
      "Class": 8613,
      "indicating": 8614,
      "может": 8615,
      "Wednes": 8616,
      "08": 8617,
      "OH": 8618,
      "cro": 8619,
      "r_": 8620,
      "пис": 8621,
      "degrees": 8622,
      "arian": 8623,
      "distribute": 8624,
      "cumul": 8625,
      "German": 8626,
      "shirts": 8627,
      "consciousness": 8628,
      "Max": 8629,
      "Op": 8630,
      "Pass": 8631,
      "throw": 8632,
      "ticket": 8633,
      "summary": 8634,
      "','": 8635,
      "Problem": 8636,
      "prior": 8637,
      "chocol": 8638,
      "background": 8639,
      "програм": 8640,
      "keywords": 8641,
      "middle": 8642,
      "ются": 8643,
      "agram": 8644,
      "feedback": 8645,
      "Backstory": 8646,
      "First": 8647,
      "PQ": 8648,
      "hed": 8649,
      "swe": 8650,
      "пло": 8651,
      "expect": 8652,
      "dogs": 8653,
      "compan": 8654,
      "compare": 8655,
      "ний": 8656,
      "integr": 8657,
      "rench": 8658,
      "medical": 8659,
      "link": 8660,
      "society": 8661,
      "sale": 8662,
      "segments": 8663,
      "silver": 8664,
      "battle": 8665,
      "department": 8666,
      "Mer": 8667,
      "ising": 8668,
      "chess": 8669,
      "motion": 8670,
      "duplic": 8671,
      "ров": 8672,
      "помо": 8673,
      "everything": 8674,
      "genre": 8675,
      "charges": 8676,
      "experiment": 8677,
      "votes": 8678,
      "consumption": 8679,
      "Euro": 8680,
      "Oc": 8681,
      "hat": 8682,
      "жд": 8683,
      "сре": 8684,
      "recur": 8685,
      "urs": 8686,
      "peace": 8687,
      "lled": 8688,
      "culpt": 8689,
      "Thomp": 8690,
      "possess": 8691,
      "specializing": 8692,
      "purchased": 8693,
      "Roman": 8694,
      "framework": 8695,
      "soul": 8696,
      "simultane": 8697,
      "ellipse": 8698,
      "деятельности": 8699,
      "subsequent": 8700,
      "Thompson": 8701,
      "2y": 8702,
      "61": 8703,
      "vn": 8704,
      "сы": 8705,
      "ਕਿ": 8706,
      "stable": 8707,
      "meta": 8708,
      "unting": 8709,
      "rays": 8710,
      "entially": 8711,
      "вая": 8712,
      "get_": 8713,
      "themselves": 8714,
      "throughout": 8715,
      "conducting": 8716,
      "quarter": 8717,
      "450": 8718,
      "([": 8719,
      "vow": 8720,
      "lets": 8721,
      "coach": 8722,
      "ilateral": 8723,
      "conve": 8724,
      "propos": 8725,
      "external": 8726,
      "ника": 8727,
      "bling": 8728,
      "objects": 8729,
      "vise": 8730,
      "primary": 8731,
      "9999": 8732,
      "designing": 8733,
      "testing": 8734,
      "ballo": 8735,
      "practices": 8736,
      "existing": 8737,
      "oxys": 8738,
      "approximately": 8739,
      "Title": 8740,
      "82": 8741,
      "Mus": 8742,
      "Ori": 8743,
      "SH": 8744,
      "ail": 8745,
      "dx": 8746,
      "kids": 8747,
      "onto": 8748,
      "unity": 8749,
      "dir": 8750,
      "examin": 8751,
      "sia": 8752,
      "matter": 8753,
      "productivity": 8754,
      "missing": 8755,
      "тие": 8756,
      "except": 8757,
      "Implement": 8758,
      "SU": 8759,
      "catch": 8760,
      "mm": 8761,
      "sculpt": 8762,
      "Про": 8763,
      "assume": 8764,
      "resid": 8765,
      "raw": 8766,
      "shot": 8767,
      "icient": 8768,
      "ishing": 8769,
      "transactions": 8770,
      "iana": 8771,
      "identity": 8772,
      "giving": 8773,
      "influenced": 8774,
      "reduction": 8775,
      "secret": 8776,
      "princi": 8777,
      "basketball": 8778,
      "FA": 8779,
      "ii": 8780,
      "slow": 8781,
      "meal": 8782,
      "noticed": 8783,
      "outcomes": 8784,
      "gradient": 8785,
      "crime": 8786,
      "graphic": 8787,
      "occup": 8788,
      "tests": 8789,
      "allows": 8790,
      "bottle": 8791,
      "COV": 8792,
      "форма": 8793,
      "modern": 8794,
      "Olivia": 8795,
      "Wednesday": 8796,
      "$;": 8797,
      "Of": 8798,
      "Tra": 8799,
      "bad": 8800,
      "cil": 8801,
      "django": 8802,
      "vul": 8803,
      "ingre": 8804,
      "civil": 8805,
      "bug": 8806,
      "prepare": 8807,
      "ких": 8808,
      "paths": 8809,
      "please": 8810,
      "tournament": 8811,
      "MP": 8812,
      "mig": 8813,
      "анали": 8814,
      "enn": 8815,
      "asse": 8816,
      "quil": 8817,
      "doing": 8818,
      "clust": 8819,
      "someone": 8820,
      "hosp": 8821,
      "attended": 8822,
      "survi": 8823,
      "expand": 8824,
      "ответ": 8825,
      "mortal": 8826,
      "divisor": 8827,
      "swim": 8828,
      "birds": 8829,
      "progress": 8830,
      "chapter1": 8831,
      ";,&#": 8832,
      "fifth": 8833,
      ".</": 8834,
      "batch": 8835,
      "llect": 8836,
      "von": 8837,
      "yuan": 8838,
      "зда": 8839,
      "ਤੇ": 8840,
      "thous": 8841,
      "ione": 8842,
      "chi": 8843,
      "ении": 8844,
      "emphas": 8845,
      "Chris": 8846,
      "titles": 8847,
      "frequently": 8848,
      "ход": 8849,
      "saved": 8850,
      "возмож": 8851,
      "thousand": 8852,
      "2D": 8853,
      "></": 8854,
      "[[": 8855,
      "Fo": 8856,
      "IV": 8857,
      "oks": 8858,
      "px": 8859,
      "Со": 8860,
      "жно": 8861,
      "resh": 8862,
      "neq": 8863,
      "indu": 8864,
      "therap": 8865,
      "earn": 8866,
      "serve": 8867,
      "2008": 8868,
      "highlight": 8869,
      "implementation": 8870,
      "survey": 8871,
      "%,": 8872,
      "bacter": 8873,
      "fly": 8874,
      "pac": 8875,
      "slo": 8876,
      "zam": 8877,
      "repor": 8878,
      "berries": 8879,
      "lify": 8880,
      "female": 8881,
      "correlation": 8882,
      "workers": 8883,
      "ogle": 8884,
      "partner": 8885,
      "Only": 8886,
      "cake": 8887,
      "deeply": 8888,
      "arguments": 8889,
      "simultaneously": 8890,
      "71": 8891,
      "!=": 8892,
      "DI": 8893,
      "Lily": 8894,
      "bank": 8895,
      "ito": 8896,
      "ky": 8897,
      "Ма": 8898,
      "ਗੁ": 8899,
      "ార": 8900,
      "gebra": 8901,
      "sustain": 8902,
      "sizes": 8903,
      "cans": 8904,
      "answers": 8905,
      "turing": 8906,
      "spee": 8907,
      "avid": 8908,
      "рия": 8909,
      "forest": 8910,
      "humans": 8911,
      "expenses": 8912,
      "powers": 8913,
      "watching": 8914,
      "varying": 8915,
      "H2": 8916,
      "Kan": 8917,
      "Math": 8918,
      "rules": 8919,
      "явля": 8920,
      "nums": 8921,
      "absolute": 8922,
      "onses": 8923,
      "James": 8924,
      "artifacts": 8925,
      "episode": 8926,
      "competition": 8927,
      "marketing": 8928,
      "{{": 8929,
      "Test": 8930,
      "gins": 8931,
      "vas": 8932,
      "wish": 8933,
      "wild": 8934,
      "кры": 8935,
      "acade": 8936,
      "promis": 8937,
      "ams": 8938,
      "cloud": 8939,
      "subset": 8940,
      "append": 8941,
      "Once": 8942,
      "marked": 8943,
      "cubic": 8944,
      "chaos": 8945,
      "Line": 8946,
      "Mem": 8947,
      "Number": 8948,
      "eas": 8949,
      "fle": 8950,
      "kmph": 8951,
      "n_": 8952,
      "p_": 8953,
      "rance": 8954,
      "Ин": 8955,
      "thor": 8956,
      "ifts": 8957,
      "equi": 8958,
      "Deoxys": 8959,
      "лом": 8960,
      "приме": 8961,
      "legs": 8962,
      "successfully": 8963,
      "lambd": 8964,
      "animals": 8965,
      "использо": 8966,
      "Europe": 8967,
      "5000": 8968,
      "6x": 8969,
      "='": 8970,
      "]`": 8971,
      "Non": 8972,
      "kh": 8973,
      "oa": 8974,
      "san": 8975,
      "స్": 8976,
      "illi": 8977,
      "died": 8978,
      "abb": 8979,
      "comed": 8980,
      "emis": 8981,
      "тех": 8982,
      "laka": 8983,
      "flour": 8984,
      "carbon": 8985,
      "weekly": 8986,
      "standing": 8987,
      "zz_y": 8988,
      "zz_y7": 8989,
      "73": 8990,
      "\"<": 8991,
      "Gen": 8992,
      "Net": 8993,
      "Pop": 8994,
      "Uni": 8995,
      "vity": 8996,
      "ando": 8997,
      "stre": 8998,
      "entang": 8999,
      "conven": 9000,
      "ctuation": 9001,
      "suffer": 9002,
      "outcome": 9003,
      "2018": 9004,
      "cribed": 9005,
      "prec": 9006,
      "visible": 9007,
      "лич": 9008,
      "reality": 9009,
      "slices": 9010,
      "allowed": 9011,
      "package": 9012,
      "attention": 9013,
      "recommend": 9014,
      "district": 9015,
      "entrepre": 9016,
      "attendees": 9017,
      "Ra": 9018,
      "dance": 9019,
      "ده": 9020,
      "promp": 9021,
      "interpret": 9022,
      "worker": 9023,
      "...,": 9024,
      "nings": 9025,
      "puzz": 9026,
      "counter": 9027,
      "approaches": 9028,
      "smooth": 9029,
      "?»": 9030,
      "Vis": 9031,
      "nut": 9032,
      "вя": 9033,
      "нения": 9034,
      "eras": 9035,
      "unte": 9036,
      "dients": 9037,
      "contract": 9038,
      "trics": 9039,
      "despite": 9040,
      "только": 9041,
      "^{-\\": 9042,
      "проце": 9043,
      "purpose": 9044,
      "прав": 9045,
      "improvement": 9046,
      "convert": 9047,
      "storage": 9048,
      "Friday": 9049,
      "DD": 9050,
      "Red": 9051,
      "piz": 9052,
      "rich": 9053,
      "uled": 9054,
      "2020": 9055,
      "foc": 9056,
      "Helia": 9057,
      "могу": 9058,
      "uniform": 9059,
      "faction": 9060,
      "exception": 9061,
      "quadrilateral": 9062,
      "bottles": 9063,
      "которые": 9064,
      "Alaka": 9065,
      "K_": 9066,
      "Na": 9067,
      "evolution": 9068,
      "kt": 9069,
      "mn": 9070,
      "omin": 9071,
      "кру": 9072,
      "attered": 9073,
      "los": 9074,
      "trust": 9075,
      "agg": 9076,
      "timate": 9077,
      "butes": 9078,
      "bition": 9079,
      "warm": 9080,
      "knows": 9081,
      "imagin": 9082,
      "lowercase": 9083,
      "technique": 9084,
      "assigned": 9085,
      "позво": 9086,
      "Alakazam": 9087,
      "BIB": 9088,
      "FF": 9089,
      "F_": 9090,
      "Nyra": 9091,
      "Sw": 9092,
      "bt": 9093,
      "кт": 9094,
      "ون": 9095,
      "thr": 9096,
      "enjoy": 9097,
      "divide": 9098,
      "docx": 9099,
      "стро": 9100,
      "felt": 9101,
      "125": 9102,
      "interface": 9103,
      "anything": 9104,
      "через": 9105,
      "everyone": 9106,
      "ordered": 9107,
      "films": 9108,
      "networks": 9109,
      "layers": 9110,
      "researcher": 9111,
      "completely": 9112,
      "straw": 9113,
      "requirements": 9114,
      "separated": 9115,
      "concert": 9116,
      "snip": 9117,
      "sleep": 9118,
      "orient": 9119,
      "suggests": 9120,
      "Analyze": 9121,
      "focusing": 9122,
      ")+": 9123,
      ":</": 9124,
      "PT": 9125,
      "bil": 9126,
      "ply": 9127,
      "heav": 9128,
      "urban": 9129,
      "ader": 9130,
      "extr": 9131,
      "fear": 9132,
      "median": 9133,
      "effectively": 9134,
      "argument": 9135,
      "Product": 9136,
      "journalist": 9137,
      "philoso": 9138,
      ",\\": 9139,
      "Evalu": 9140,
      "ву": 9141,
      "тся": 9142,
      "……": 9143,
      "seat": 9144,
      "ride": 9145,
      "poop": 9146,
      "peak": 9147,
      "compound": 9148,
      "parse": 9149,
      "Initi": 9150,
      "рат": 9151,
      "fraction": 9152,
      "renowned": 9153,
      "critic": 9154,
      "amplit": 9155,
      "launch": 9156,
      "log_": 9157,
      "weekend": 9158,
      "вых": 9159,
      "liters": 9160,
      "broken": 9161,
      "candies": 9162,
      "paintings": 9163,
      "superposition": 9164,
      "requirement": 9165,
      "novels": 9166,
      "reported": 9167,
      "CONT": 9168,
      "objective": 9169,
      "Moreover": 9170,
      "COVID": 9171,
      "entrepreneur": 9172,
      "Don": 9173,
      "fat": 9174,
      "gro": 9175,
      "ora": 9176,
      "offee": 9177,
      "ara": 9178,
      "acid": 9179,
      "robust": 9180,
      "core": 9181,
      "copy": 9182,
      "meets": 9183,
      "chron": 9184,
      "aby": 9185,
      "weather": 9186,
      "ideas": 9187,
      "extre": 9188,
      "limited": 9189,
      "blogger": 9190,
      "historian": 9191,
      "packages": 9192,
      "ческих": 9193,
      "responses": 9194,
      ">\"": 9195,
      "}\\),": 9196,
      "gency": 9197,
      "pti": 9198,
      "replace": 9199,
      "algebra": 9200,
      "righ": 9201,
      "boat": 9202,
      "****": 9203,
      "graphs": 9204,
      "scholar": 9205,
      "director": 9206,
      "само": 9207,
      "friendly": 9208,
      "born": 9209,
      "execution": 9210,
      "Sta": 9211,
      "Simp": 9212,
      "eight": 9213,
      "front": 9214,
      "где": 9215,
      "maker": 9216,
      "adop": 9217,
      "mole": 9218,
      "tracks": 9219,
      "mato": 9220,
      "serving": 9221,
      "disse": 9222,
      "getting": 9223,
      "decay": 9224,
      "saw": 9225,
      "дела": 9226,
      "REF": 9227,
      "Book": 9228,
      "walks": 9229,
      "работа": 9230,
      "beneath": 9231,
      "deliver": 9232,
      "employee": 9233,
      "Super": 9234,
      "Cytos": 9235,
      "Dan": 9236,
      "E_": 9237,
      "Sou": 9238,
      "fs": 9239,
      "ku": 9240,
      "tut": 9241,
      "ਿਆ": 9242,
      "instru": 9243,
      "metrics": 9244,
      "convers": 9245,
      "urch": 9246,
      "img": 9247,
      "para": 9248,
      "2010": 9249,
      "intell": 9250,
      "после": 9251,
      "ень": 9252,
      "analyst": 9253,
      "учи": 9254,
      "Point": 9255,
      "Tech": 9256,
      "ческого": 9257,
      ")-": 9258,
      "[-": 9259,
      "rs": 9260,
      "slot": 9261,
      "При": 9262,
      "кто": 9263,
      "ਦਾ": 9264,
      "ਰਾ": 9265,
      "gement": 9266,
      "shares": 9267,
      "essence": 9268,
      "intense": 9269,
      "preci": 9270,
      "container": 9271,
      "login": 9272,
      "stands": 9273,
      "legend": 9274,
      "labels": 9275,
      "educational": 9276,
      "DAY": 9277,
      "Element": 9278,
      "Gu": 9279,
      "King": 9280,
      "crow": 9281,
      "eats": 9282,
      "senti": 9283,
      "samples": 9284,
      "مي": 9285,
      "ensive": 9286,
      "states": 9287,
      "conn": 9288,
      "url": 9289,
      "реш": 9290,
      "insights": 9291,
      "released": 9292,
      "Buffer": 9293,
      "ethical": 9294,
      "steady": 9295,
      "belonging": 9296,
      "Posted": 9297,
      "''": 9298,
      "mg": 9299,
      "send": 9300,
      "tures": 9301,
      "гда": 9302,
      "seats": 9303,
      "decor": 9304,
      "shar": 9305,
      "dule": 9306,
      "imper": 9307,
      "bled": 9308,
      "crimin": 9309,
      "epsil": 9310,
      "тив": 9311,
      "rule": 9312,
      "Arbas": 9313,
      "equilateral": 9314,
      "camera": 9315,
      "derivative": 9316,
      "CW4Kids": 9317,
      "epsilon": 9318,
      "Arbasoa": 9319,
      "($": 9320,
      "]]": 9321,
      "});": 9322,
      "Event": 9323,
      "X_": 9324,
      "Ye": 9325,
      "az": 9326,
      "ost": 9327,
      "plo": 9328,
      "phis": 9329,
      "од": 9330,
      "опреде": 9331,
      "sector": 9332,
      "forces": 9333,
      "iling": 9334,
      "examples": 9335,
      "soon": 9336,
      "compar": 9337,
      "intellect": 9338,
      "Project": 9339,
      "volunte": 9340,
      "strugg": 9341,
      "apping": 9342,
      "мати": 9343,
      "occurren": 9344,
      "musicians": 9345,
      "satisfaction": 9346,
      "weighted": 9347,
      "Johnson": 9348,
      "criteria": 9349,
      "Sci": 9350,
      "evol": 9351,
      "fight": 9352,
      "hic": 9353,
      "spot": 9354,
      "is_": 9355,
      "edical": 9356,
      "chick": 9357,
      "exam": 9358,
      "sibility": 9359,
      "int_": 9360,
      "total_": 9361,
      "actual": 9362,
      "notes": 9363,
      "Thy": 9364,
      "140": 9365,
      "handles": 9366,
      "dragon": 9367,
      "signal": 9368,
      "мето": 9369,
      "shortest": 9370,
      "fruits": 9371,
      "Delta": 9372,
      "матери": 9373,
      "eigenvalues": 9374,
      "restaurant": 9375,
      "Figure": 9376,
      "TE": 9377,
      "bath": 9378,
      "dium": 9379,
      "manner": 9380,
      "relig": 9381,
      "didn": 9382,
      "rices": 9383,
      "hospital": 9384,
      "Evaluate": 9385,
      "intellig": 9386,
      "](": 9387,
      "Jul": 9388,
      "bol": 9389,
      "svel": 9390,
      "zu": 9391,
      "гла": 9392,
      "кси": 9393,
      "ਾਂ": 9394,
      "inher": 9395,
      "began": 9396,
      "rabb": 9397,
      "tau": 9398,
      "рас": 9399,
      "aker": 9400,
      "visits": 9401,
      "constit": 9402,
      "transfer": 9403,
      "цию": 9404,
      "Therefore": 9405,
      "providing": 9406,
      "meticul": 9407,
      "appearance": 9408,
      "quarters": 9409,
      "activation": 9410,
      "brief": 9411,
      "Country": 9412,
      "balloons": 9413,
      "svelte": 9414,
      "=-": 9415,
      "ZM": 9416,
      "coffee": 9417,
      "lı": 9418,
      "mouse": 9419,
      "ras": 9420,
      "ਤਿ": 9421,
      "reaction": 9422,
      "suo": 9423,
      "abs": 9424,
      "abil": 9425,
      "ups": 9426,
      "brought": 9427,
      "ней": 9428,
      "included": 9429,
      "breath": 9430,
      "ставля": 9431,
      "affect": 9432,
      "occurs": 9433,
      "пиши": 9434,
      "shelf": 9435,
      "encryption": 9436,
      "Last": 9437,
      "P_i": 9438,
      "Qual": 9439,
      "Ul": 9440,
      "d_": 9441,
      "fuel": 9442,
      "vin": 9443,
      "зи": 9444,
      "ister": 9445,
      "stone": 9446,
      "cosa": 9447,
      "pod": 9448,
      "advert": 9449,
      "mente": 9450,
      "oph": 9451,
      "Def": 9452,
      "кой": 9453,
      "max_": 9454,
      "passeng": 9455,
      "collect": 9456,
      "generation": 9457,
      "3333": 9458,
      "relationships": 9459,
      "executive": 9460,
      "гани": 9461,
      "audio": 9462,
      "juice": 9463,
      "|---|---|---|---|---|---|---|---|": 9464,
      "():": 9465,
      ")*": 9466,
      "}\\).": 9467,
      "Based": 9468,
      "Rep": 9469,
      "rho": 9470,
      "ới": 9471,
      "inverse": 9472,
      "ancing": 9473,
      "arc": 9474,
      "leash": 9475,
      "services": 9476,
      "dish": 9477,
      "precise": 9478,
      "Explanation": 9479,
      "profound": 9480,
      "сов": 9481,
      "polar": 9482,
      "боле": 9483,
      "applied": 9484,
      "исследо": 9485,
      "66vn": 9486,
      "basic": 9487,
      "exceeding": 9488,
      "synthe": 9489,
      "mentioned": 9490,
      "Frame": 9491,
      "snippet": 9492,
      "66vnx0": 9493,
      "App": 9494,
      "Art": 9495,
      "Call": 9496,
      "DNA": 9497,
      "FE": 9498,
      "bind": 9499,
      "ਵਿ": 9500,
      "enem": 9501,
      "itude": 9502,
      "colo": 9503,
      "diame": 9504,
      "proto": 9505,
      "mode": 9506,
      "valent": 9507,
      "101": 9508,
      "agent": 9509,
      "actually": 9510,
      "....": 9511,
      "omeg": 9512,
      "maximized": 9513,
      "languages": 9514,
      "Finally": 9515,
      "EXT": 9516,
      "seashe": 9517,
      "conflict": 9518,
      "жизни": 9519,
      "horizontal": 9520,
      "=“": 9521,
      "\"},": 9522,
      "?\"": 9523,
      "Gl": 9524,
      "PR": 9525,
      "Que": 9526,
      "War": 9527,
      "glow": 9528,
      "sac": 9529,
      "t_": 9530,
      "глу": 9531,
      "reli": 9532,
      "stery": 9533,
      "entries": 9534,
      "hea": 9535,
      "ception": 9536,
      "ife": 9537,
      "phen": 9538,
      "bucket": 9539,
      "tennis": 9540,
      "logic": 9541,
      "mixt": 9542,
      "apply": 9543,
      "covers": 9544,
      "structured": 9545,
      "litter": 9546,
      "witness": 9547,
      "nested": 9548,
      "wisdom": 9549,
      "Off": 9550,
      "T_": 9551,
      "Vi": 9552,
      "ein": 9553,
      "fran": 9554,
      "hom": 9555,
      "k_": 9556,
      "mur": 9557,
      "мби": 9558,
      "tie": 9559,
      "coded": 9560,
      "celes": 9561,
      "conference": 9562,
      "resident": 9563,
      "exion": 9564,
      "noise": 9565,
      "wealth": 9566,
      "earch": 9567,
      "рен": 9568,
      "myster": 9569,
      "maya": 9570,
      "====": 9571,
      "liter": 9572,
      "algorithms": 9573,
      "iki": 9574,
      "dynamic": 9575,
      "Score": 9576,
      "punctuation": 9577,
      "ствует": 9578,
      "|:": 9579,
      "Are": 9580,
      "Ca": 9581,
      "tto": 9582,
      "ਕਰ": 9583,
      "orange": 9584,
      "acqu": 9585,
      "ites": 9586,
      "aches": 9587,
      "module": 9588,
      "strum": 9589,
      "fractal": 9590,
      "matrices": 9591,
      "обще": 9592,
      "inscribed": 9593,
      "username": 9594,
      "movement": 9595,
      "cupcakes": 9596,
      "farmer": 9597,
      "brain": 9598,
      "skillId": 9599,
      "banana": 9600,
      "estimates": 9601,
      "uko": 9602,
      "SVG": 9603,
      "seashells": 9604,
      "210": 9605,
      "Jane": 9606,
      "Oh": 9607,
      "lunch": 9608,
      "mile": 9609,
      "scor": 9610,
      "aled": 9611,
      "vec": 9612,
      "tery": 9613,
      "ills": 9614,
      "actor": 9615,
      "distances": 9616,
      "century": 9617,
      "grant": 9618,
      "floats": 9619,
      "showing": 9620,
      "ORM": 9621,
      "Charlie": 9622,
      "confid": 9623,
      "Plan": 9624,
      "translation": 9625,
      "Sentence": 9626,
      "().": 9627,
      "Hy": 9628,
      "NIGHT": 9629,
      "m_": 9630,
      "ông": 9631,
      "whis": 9632,
      "however": 9633,
      "corner": 9634,
      "charge": 9635,
      "logical": 9636,
      "profile": 9637,
      "processes": 9638,
      "States": 9639,
      "traveled": 9640,
      "implemented": 9641,
      "participant": 9642,
      "ческие": 9643,
      "URL": 9644,
      "medium": 9645,
      "mechanism": 9646,
      "neighborhood": 9647,
      "exponential": 9648,
      "четвер": 9649,
      ".\",": 9650,
      "Day": 9651,
      "PA": 9652,
      "S_n": 9653,
      "\\\\)": 9654,
      "orter": 9655,
      "edi": 9656,
      "dio": 9657,
      "conser": 9658,
      "quest": 9659,
      "ado": 9660,
      "cancer": 9661,
      "lling": 9662,
      "thentic": 9663,
      "160": 9664,
      "experienced": 9665,
      "joint": 9666,
      "driver": 9667,
      "holding": 9668,
      "observes": 9669,
      "younger": 9670,
      "--------------------------------": 9671,
      "election": 9672,
      "Analysis": 9673,
      "quiet": 9674,
      "justice": 9675,
      "concepts": 9676,
      "DB": 9677,
      "Fun": 9678,
      "NE": 9679,
      "UC": 9680,
      "bright": 9681,
      "db": 9682,
      "ón": 9683,
      "мя": 9684,
      "ਪਾ": 9685,
      "した": 9686,
      "became": 9687,
      "unknown": 9688,
      "river": 9689,
      "diff": 9690,
      "aren": 9691,
      "opport": 9692,
      "121": 9693,
      "discre": 9694,
      "deploy": 9695,
      "midpoint": 9696,
      "Shmaya": 9697,
      "healthcare": 9698,
      "exceeds": 9699,
      "routine": 9700,
      "также": 9701,
      "Tetsuko": 9702,
      "Thymis": 9703,
      "]<": 9704,
      "Date": 9705,
      "French": 9706,
      "March": 9707,
      "Path": 9708,
      "ficial": 9709,
      "pand": 9710,
      "leaving": 9711,
      "icate": 9712,
      "vehic": 9713,
      "mpto": 9714,
      "pole": 9715,
      "advent": 9716,
      "amid": 9717,
      "ounts": 9718,
      "dots": 9719,
      "immedi": 9720,
      "bute": 9721,
      "findings": 9722,
      "optimized": 9723,
      "responsible": 9724,
      "applications": 9725,
      "travels": 9726,
      "Identi": 9727,
      "electric": 9728,
      "golden": 9729,
      "British": 9730,
      "symmetric": 9731,
      "chocolate": 9732,
      "Apr": 9733,
      "San": 9734,
      "bread": 9735,
      "nation": 9736,
      "ui": 9737,
      "yer": 9738,
      "щение": 9739,
      "aci": 9740,
      "accom": 9741,
      "hear": 9742,
      "sex": 9743,
      "umin": 9744,
      "rial": 9745,
      "diversity": 9746,
      "lose": 9747,
      "tray": 9748,
      "disci": 9749,
      "a_3": 9750,
      "кая": 9751,
      "likely": 9752,
      "attending": 9753,
[...]
